node {
  name: "global_step/Initializer/zeros"
  op: "Const"
  attr {
    key: "_class"
    value {
      list {
        s: "loc:@global_step"
      }
    }
  }
  attr {
    key: "_output_shapes"
    value {
      list {
        shape {
        }
      }
    }
  }
  attr {
    key: "dtype"
    value {
      type: DT_INT64
    }
  }
  attr {
    key: "value"
    value {
      tensor {
        dtype: DT_INT64
        tensor_shape {
        }
        int64_val: 0
      }
    }
  }
}
node {
  name: "global_step"
  op: "VarHandleOp"
  attr {
    key: "_class"
    value {
      list {
        s: "loc:@global_step"
      }
    }
  }
  attr {
    key: "_output_shapes"
    value {
      list {
        shape {
        }
      }
    }
  }
  attr {
    key: "allowed_devices"
    value {
      list {
      }
    }
  }
  attr {
    key: "container"
    value {
      s: ""
    }
  }
  attr {
    key: "dtype"
    value {
      type: DT_INT64
    }
  }
  attr {
    key: "shape"
    value {
      shape {
      }
    }
  }
  attr {
    key: "shared_name"
    value {
      s: "global_step"
    }
  }
}
node {
  name: "global_step/IsInitialized/VarIsInitializedOp"
  op: "VarIsInitializedOp"
  input: "global_step"
  attr {
    key: "_output_shapes"
    value {
      list {
        shape {
        }
      }
    }
  }
}
node {
  name: "global_step/Assign"
  op: "AssignVariableOp"
  input: "global_step"
  input: "global_step/Initializer/zeros"
  attr {
    key: "dtype"
    value {
      type: DT_INT64
    }
  }
}
node {
  name: "global_step/Read/ReadVariableOp"
  op: "ReadVariableOp"
  input: "global_step"
  attr {
    key: "_output_shapes"
    value {
      list {
        shape {
        }
      }
    }
  }
  attr {
    key: "dtype"
    value {
      type: DT_INT64
    }
  }
}
node {
  name: "global_step/VarIsInitializedOp"
  op: "VarIsInitializedOp"
  input: "global_step"
  attr {
    key: "_output_shapes"
    value {
      list {
        shape {
        }
      }
    }
  }
}
node {
  name: "global_step/cond"
  op: "If"
  input: "global_step/VarIsInitializedOp"
  input: "global_step"
  input: "global_step/Initializer/zeros"
  attr {
    key: "Tcond"
    value {
      type: DT_BOOL
    }
  }
  attr {
    key: "Tin"
    value {
      list {
        type: DT_RESOURCE
        type: DT_INT64
      }
    }
  }
  attr {
    key: "Tout"
    value {
      list {
        type: DT_INT64
      }
    }
  }
  attr {
    key: "_lower_using_switch_merge"
    value {
      b: true
    }
  }
  attr {
    key: "_output_shapes"
    value {
      list {
        shape {
        }
      }
    }
  }
  attr {
    key: "_read_only_resource_inputs"
    value {
      list {
        i: 1
      }
    }
  }
  attr {
    key: "else_branch"
    value {
      func {
        name: "global_step_cond_false_49"
      }
    }
  }
  attr {
    key: "output_shapes"
    value {
      list {
        shape {
        }
      }
    }
  }
  attr {
    key: "then_branch"
    value {
      func {
        name: "global_step_cond_true_48"
      }
    }
  }
}
node {
  name: "global_step/cond/Identity"
  op: "Identity"
  input: "global_step/cond"
  attr {
    key: "T"
    value {
      type: DT_INT64
    }
  }
  attr {
    key: "_output_shapes"
    value {
      list {
        shape {
        }
      }
    }
  }
}
node {
  name: "global_step/add/y"
  op: "Const"
  attr {
    key: "_output_shapes"
    value {
      list {
        shape {
        }
      }
    }
  }
  attr {
    key: "dtype"
    value {
      type: DT_INT64
    }
  }
  attr {
    key: "value"
    value {
      tensor {
        dtype: DT_INT64
        tensor_shape {
        }
        int64_val: 0
      }
    }
  }
}
node {
  name: "global_step/add"
  op: "AddV2"
  input: "global_step/cond/Identity"
  input: "global_step/add/y"
  attr {
    key: "T"
    value {
      type: DT_INT64
    }
  }
  attr {
    key: "_output_shapes"
    value {
      list {
        shape {
        }
      }
    }
  }
}
node {
  name: "normalize_element/component_0"
  op: "Const"
  device: "/device:CPU:0"
  attr {
    key: "_output_shapes"
    value {
      list {
        shape {
          dim {
            size: 313
          }
        }
      }
    }
  }
  attr {
    key: "dtype"
    value {
      type: DT_DOUBLE
    }
  }
  attr {
    key: "value"
    value {
      tensor {
        dtype: DT_DOUBLE
        tensor_shape {
          dim {
            size: 313
          }
        }
        tensor_content: "\320\361\365\355\220\343Z\277\326\367\305\244\371\225\361?\322 \234gc\256\322?\360\335\212\210:U\320?LpxQ$\252\341\277\343NF!Y\236\373\277{g\032q*\362\241?\367\365\232\017v\\\346\277\324\311f\252\001\213\320\277\371\351\022L\330X\363?\021\000\255~\222A\346?\324\311f\252\001\213\320\277\263c\255F\214\007\325?\251\014x\211*\344\322\277=\3324^3\342\351\277V\273p\n\346\256\370\277bQ\264\375\326v\360\277jJ\0271\\\302\273?\320\361\365\355\220\343Z\277}\246\276%\265`\327?\251\014x\211*\344\322\277\371\351\022L\330X\363?\3228\254\356\236\265\350\277jJ\0271\\\302\273?\221\310\340\033\rM\355?s\356A<\3254\263\277\263c\255F\214\007\325?\365\330\001Q\254b\340?\317,$+\001\262\365?=\3324^3\342\351\277lV=5ei\360?d\213\233\273l\205\364??\316\254\232\225\336\366?jJ\0271\\\302\273?\207}\350bKH\366?\306\204\3432Y6\002\300jJ\0271\\\302\273?=\3324^3\342\351\277X\001\340\213\031\301\357\277\375\r\253\226\261c\314\277\317,$+\001\262\365?\345H\202?\212\034\n@\013\030\275\005\316H\334\277\3228\254\356\236\265\350\277R\210\210\330_\261\307\277V\273p\n\346\256\370\277\373\214\312\014\362\341\006@\352S\317X\347\220\373?\027\242x5!\r\361\277\to\362\302/l\336?\rF\034\000\306S\375?\220\002f\032\016\377\302\277[\200N\242\017\021\003@:\224\305\334\377\317\362\277\to\362\302/l\336?\322 \234gc\256\322?\013\030\275\005\316H\334\277\324\311f\252\001\213\320\277\251\014x\211*\344\322\277\343NF!Y\236\373\277s\356A<\3254\263\277lV=5ei\360?\013\030\275\005\316H\334\277!\263\2110M\003\344\277T\030\271I\314%\005\300\324\311f\252\001\213\320\277s\356A<\3254\263\277!\263\2110M\003\344\277\310\'\233\363r\277\365\277:\224\305\334\377\317\362\277\240^$\017\376\024\345?]\206\022\204\336\222\364\277=\3324^3\342\351\277V\273p\n\346\256\370\277jJ\0271\\\302\273?\371\351\022L\330X\363?\013\030\275\005\316H\334\277`\222\232G|\226\327\277s\356A<\3254\263\277\310\'\233\363r\277\365\277.\376\201\351\016\010\373\277\360\335\212\210:U\320?s\356A<\3254\263\277X\001\340\213\031\301\357\277\312\033\0230\325\273\342?\203\276\316\254\360g\355\277\024?\322\264\270]\262?\324\311f\252\001\213\320\277\361\336\3052{\344\001@jJ\0271\\\302\273?s\356A<\3254\263\277=\3324^3\342\351\277{g\032q*\362\241?\013\030\275\005\316H\334\277\360\335\212\210:U\320?V\273p\n\346\256\370\277\243\244\223\2201\'\374?\203\276\316\254\360g\355\27718i\247\244\026\377?\013\030\275\005\316H\334\277=\3324^3\342\351\277:\224\305\334\377\317\362\277u\2415\356&n\347?\266\021\001\301\270\326\342\277\207}\350bKH\366?(,\341\343\006\023\334?=\3324^3\342\351\277jJ\0271\\\302\273?\312\033\0230\325\273\342?X\001\340\213\031\301\357\277\377\272x\247\237\276\000\300$\247\001m\257\377\360?\322 \234gc\256\322?\346B\276]\273\232\350?\225\266\343\026V\231\001@\326\367\305\244\371\225\361?lV=5ei\360?!\263\2110M\003\344\277\243\244\223\2201\'\374?{g\032q*\362\241?X\001\340\213\031\301\357\277\177O\211hS=\325\277!\263\2110M\003\344\277]\300\371At\241\370?\320\361\365\355\220\343Z\277s\356A<\3254\263\277\247{\275\315\307\016\353\277s\356A<\3254\263\277\367*\256\326\177\223\302?=\3324^3\342\351\277=\3324^3\342\351\277\322 \234gc\256\322?\324\311f\252\001\213\320\277g\227#\177\n\211\347\277\343NF!Y\236\373\277$\247\001m\257\377\360?\013\0145B0E\371\277{g\032q*\362\241?\013\030\275\005\316H\334\277\214T\022\240\341/\345\277\274\205\317<\344\363\352?\371\351\022L\330X\363?\203\276\316\254\360g\355\277lV=5ei\360?\337e\037\337\013\003\001@\013\030\275\005\316H\334\277s\356A<\3254\263\277\013\030\275\005\316H\334\277:\224\305\334\377\317\362\277\203\276\316\254\360g\355\277X\001\340\213\031\301\357\277\013\030\275\005\316H\334\27718i\247\244\026\377?\310\'\233\363r\277\365\277:\224\305\334\377\317\362\277\274\205\317<\344\363\352?\213\260\320\224\321E\307?\021\000\255~\222A\346?jJ\0271\\\302\273?\324\311f\252\001\213\320\277\213\260\320\224\321E\307?\214T\022\240\341/\345\277\220\002f\032\016\377\302\277\320\361\365\355\220\343Z\277!\263\2110M\003\344\277/\275\233\237i\350\343?\207}\350bKH\366?\324\311f\252\001\213\320\277\205C\001\245\2659\362\277\322 \234gc\256\322?\221\310\340\033\rM\355?\205C\001\245\2659\362\277\310\'\233\363r\277\365\277\027\242x5!\r\361\277\312\033\0230\325\273\342?\013\030\275\005\316H\334\277,\'X\254x \354?s\356A<\3254\263\277s\356A<\3254\263\277s\356A<\3254\263\277d\213\233\273l\205\364?R\210\210\330_\261\307\277(,\341\343\006\023\334?\274\205\317<\344\363\352?X\001\340\213\031\301\357\277!\263\2110M\003\344\277\315a\202\261\010\316\371?\322 \234gc\256\322?\360\335\212\210:U\320?\371\351\022L\330X\363?\to\362\302/l\336?\002Xl\206\352\305\002@18i\247\244\026\377?\251\014x\211*\344\322\277\341Z\316\344\366\241\336\277:\224\305\334\377\317\362\277\371\351\022L\330X\363?\to\362\302/l\336?\247{\275\315\307\016\353\277\322 \234gc\256\322?\343NF!Y\236\373\277[\200N\242\017\021\003@s\356A<\3254\263\277s\356A<\3254\263\277\to\362\302/l\336?18i\247\244\026\377?K\344F\315O\307\351?\377\272x\247\237\276\000\300}\246\276%\265`\327?\322 \234gc\256\322?\022\327\326\273()\365\277\027\242x5!\r\361\277\to\362\302/l\336?\251\014x\211*\344\322\277s\356A<\3254\263\277\002ji\213\241y\356?\240^$\017\376\024\345?\213\260\320\224\321E\307?\013\030\275\005\316H\334\277\346B\276]\273\232\350?\207}\350bKH\366?g\227#\177\n\211\347\277:\306\371\177c\240\243\277jJ\0271\\\302\273?\251\014x\211*\344\322\277\343NF!Y\236\373\277\371\351\022L\330X\363?y\255\275\261\304q\372\277\311\371\206\270x\231\274\277\375\r\253\226\261c\314\277u\2415\356&n\347?jJ\0271\\\302\273?(,\341\343\006\023\334?`\222\232G|\226\327\277\013\030\275\005\316H\334\277!\263\2110M\003\344\277\341Z\316\344\366\241\336\277\360\335\212\210:U\320?\013\030\275\005\316H\334\277\013\030\275\005\316H\334\277\371\351\022L\330X\363?\274\205\317<\344\363\352?`\222\232G|\226\327\277\333\316\357\341\217}\340\277=\3324^3\342\351\277\to\362\302/l\336?\322 \234gc\256\322?\341Z\316\344\366\241\336\277!\263\2110M\003\344\277\221\310\340\033\rM\355?\to\362\302/l\336?LpxQ$\252\341\277LpxQ$\252\341\277$\247\001m\257\377\360?X\001\340\213\031\301\357\277\207}\350bKH\366?\263c\255F\214\007\325?\371\351\022L\330X\363?!\263\2110M\003\344\277/\275\233\237i\350\343?X\001\340\213\031\301\357\277s\356A<\3254\263\277\232\231Fw\324\262\n@\322 \234gc\256\322?\341Z\316\344\366\241\336\277\217H\212\334C,\362?\324\311f\252\001\213\320\277\274\205\317<\344\363\352?\310\'\233\363r\277\365\277\312\033\0230\325\273\342?\310\'\233\363r\277\365\277?\316\254\232\225\336\366?!\263\2110M\003\344\277\013\030\275\005\316H\334\277s\356A<\3254\263\277!\263\2110M\003\344\277\306\204\3432Y6\002\300\274\205\317<\344\363\352?$\247\001m\257\377\360?\322 \234gc\256\322?}\246\276%\265`\327?s\356A<\3254\263\277V\273p\n\346\256\370\277\315a\202\261\010\316\371?\240^$\017\376\024\345?\240^$\017\376\024\345?R\210\210\330_\261\307\277T\030\271I\314%\005\300\013\030\275\005\316H\334\277X\001\340\213\031\301\357\277\177O\211hS=\325\277=\3324^3\342\351\277\177O\211hS=\325\277=\3324^3\342\351\277\207}\350bKH\366?\013\030\275\005\316H\334\277{g\032q*\362\241?\367\365\232\017v\\\346\277Zz\212\300@\217\341?\251\014x\211*\344\322\277=\3324^3\342\351\277\221\310\340\033\rM\355?\360\335\212\210:U\320?:\224\305\334\377\317\362\27718i\247\244\026\377?\013\030\275\005\316H\334\277\360\335\212\210:U\320?\322 \234gc\256\322?\360\335\212\210:U\320?Zz\212\300@\217\341?!\263\2110M\003\344\277\to\362\302/l\336?\310\'\233\363r\277\365\277"
      }
    }
  }
}
node {
  name: "normalize_element/component_1"
  op: "Const"
  device: "/device:CPU:0"
  attr {
    key: "_output_shapes"
    value {
      list {
        shape {
          dim {
            size: 313
          }
        }
      }
    }
  }
  attr {
    key: "dtype"
    value {
      type: DT_DOUBLE
    }
  }
  attr {
    key: "value"
    value {
      tensor {
        dtype: DT_DOUBLE
        tensor_shape {
          dim {
            size: 313
          }
        }
        tensor_content: "/\013\372B\260`\352\277\304\025\021$\334x\326?/\013\372B\260`\352\277/\013\372B\260`\352\277/\013\372B\260`\352\277z\220\2053\306l\370?\304\025\021$\334x\326?/\013\372B\260`\352\277/\013\372B\260`\352\277/\013\372B\260`\352\277\304\025\021$\334x\326?/\013\372B\260`\352\277\304\025\021$\334x\326?z\220\2053\306l\370?z\220\2053\306l\370?z\220\2053\306l\370?\304\025\021$\334x\326?z\220\2053\306l\370?/\013\372B\260`\352\277\304\025\021$\334x\326?z\220\2053\306l\370?/\013\372B\260`\352\277/\013\372B\260`\352\277\304\025\021$\334x\326?/\013\372B\260`\352\277/\013\372B\260`\352\277/\013\372B\260`\352\277\304\025\021$\334x\326?/\013\372B\260`\352\277z\220\2053\306l\370?\304\025\021$\334x\326?/\013\372B\260`\352\277\304\025\021$\334x\326?/\013\372B\260`\352\277/\013\372B\260`\352\277z\220\2053\306l\370?/\013\372B\260`\352\277z\220\2053\306l\370?z\220\2053\306l\370?/\013\372B\260`\352\277/\013\372B\260`\352\277/\013\372B\260`\352\277/\013\372B\260`\352\277\304\025\021$\334x\326?/\013\372B\260`\352\277z\220\2053\306l\370?/\013\372B\260`\352\277/\013\372B\260`\352\277z\220\2053\306l\370?/\013\372B\260`\352\277/\013\372B\260`\352\277/\013\372B\260`\352\277z\220\2053\306l\370?z\220\2053\306l\370?\304\025\021$\334x\326?\304\025\021$\334x\326?z\220\2053\306l\370?/\013\372B\260`\352\277/\013\372B\260`\352\277z\220\2053\306l\370?z\220\2053\306l\370?/\013\372B\260`\352\277/\013\372B\260`\352\277\304\025\021$\334x\326?z\220\2053\306l\370?/\013\372B\260`\352\277\304\025\021$\334x\326?/\013\372B\260`\352\277z\220\2053\306l\370?z\220\2053\306l\370?/\013\372B\260`\352\277/\013\372B\260`\352\277\034\253\275\266\237\227\366\277z\220\2053\306l\370?\304\025\021$\334x\326?z\220\2053\306l\370?/\013\372B\260`\352\277/\013\372B\260`\352\277/\013\372B\260`\352\277z\220\2053\306l\370?z\220\2053\306l\370?\304\025\021$\334x\326?\304\025\021$\334x\326?z\220\2053\306l\370?/\013\372B\260`\352\277z\220\2053\306l\370?\232\000\343a\204H\316\277/\013\372B\260`\352\277/\013\372B\260`\352\277\304\025\021$\334x\326?\304\025\021$\334x\326?\034\253\275\266\237\227\366\277/\013\372B\260`\352\277z\220\2053\306l\370?/\013\372B\260`\352\277z\220\2053\306l\370?/\013\372B\260`\352\277z\220\2053\306l\370?\304\025\021$\334x\326?/\013\372B\260`\352\277\304\025\021$\334x\326?\034\253\275\266\237\227\366\277\304\025\021$\334x\326?/\013\372B\260`\352\277/\013\372B\260`\352\277/\013\372B\260`\352\277/\013\372B\260`\352\277/\013\372B\260`\352\277/\013\372B\260`\352\277z\220\2053\306l\370?z\220\2053\306l\370?/\013\372B\260`\352\277\304\025\021$\334x\326?/\013\372B\260`\352\277/\013\372B\260`\352\277\304\025\021$\334x\326?z\220\2053\306l\370?/\013\372B\260`\352\277/\013\372B\260`\352\277\304\025\021$\334x\326?\304\025\021$\334x\326?/\013\372B\260`\352\277/\013\372B\260`\352\277\232\000\343a\204H\316\277/\013\372B\260`\352\277\304\025\021$\334x\326?\304\025\021$\334x\326?\304\025\021$\334x\326?/\013\372B\260`\352\277z\220\2053\306l\370?z\220\2053\306l\370?/\013\372B\260`\352\277\304\025\021$\334x\326?z\220\2053\306l\370?z\220\2053\306l\370?/\013\372B\260`\352\277\304\025\021$\334x\326?\304\025\021$\334x\326?/\013\372B\260`\352\277/\013\372B\260`\352\277/\013\372B\260`\352\277/\013\372B\260`\352\277z\220\2053\306l\370?/\013\372B\260`\352\277/\013\372B\260`\352\277\304\025\021$\334x\326?/\013\372B\260`\352\277/\013\372B\260`\352\277z\220\2053\306l\370?/\013\372B\260`\352\277z\220\2053\306l\370?/\013\372B\260`\352\277/\013\372B\260`\352\277z\220\2053\306l\370?z\220\2053\306l\370?/\013\372B\260`\352\277\304\025\021$\334x\326?/\013\372B\260`\352\277z\220\2053\306l\370?\304\025\021$\334x\326?/\013\372B\260`\352\277z\220\2053\306l\370?/\013\372B\260`\352\277/\013\372B\260`\352\277z\220\2053\306l\370?z\220\2053\306l\370?/\013\372B\260`\352\277z\220\2053\306l\370?\304\025\021$\334x\326?/\013\372B\260`\352\277/\013\372B\260`\352\277\304\025\021$\334x\326?z\220\2053\306l\370?z\220\2053\306l\370?/\013\372B\260`\352\277/\013\372B\260`\352\277/\013\372B\260`\352\277/\013\372B\260`\352\277/\013\372B\260`\352\277/\013\372B\260`\352\277/\013\372B\260`\352\277z\220\2053\306l\370?/\013\372B\260`\352\277\304\025\021$\334x\326?z\220\2053\306l\370?/\013\372B\260`\352\277\232\000\343a\204H\316\277/\013\372B\260`\352\277/\013\372B\260`\352\277/\013\372B\260`\352\277/\013\372B\260`\352\277/\013\372B\260`\352\277\304\025\021$\334x\326?/\013\372B\260`\352\277/\013\372B\260`\352\277z\220\2053\306l\370?z\220\2053\306l\370?/\013\372B\260`\352\277z\220\2053\306l\370?/\013\372B\260`\352\277z\220\2053\306l\370?/\013\372B\260`\352\277/\013\372B\260`\352\277/\013\372B\260`\352\277/\013\372B\260`\352\277\304\025\021$\334x\326?/\013\372B\260`\352\277z\220\2053\306l\370?/\013\372B\260`\352\277\304\025\021$\334x\326?z\220\2053\306l\370?/\013\372B\260`\352\277/\013\372B\260`\352\277/\013\372B\260`\352\277\304\025\021$\334x\326?/\013\372B\260`\352\277/\013\372B\260`\352\277/\013\372B\260`\352\277/\013\372B\260`\352\277\304\025\021$\334x\326?/\013\372B\260`\352\277z\220\2053\306l\370?/\013\372B\260`\352\277/\013\372B\260`\352\277/\013\372B\260`\352\277z\220\2053\306l\370?/\013\372B\260`\352\277z\220\2053\306l\370?/\013\372B\260`\352\277\304\025\021$\334x\326?/\013\372B\260`\352\277\304\025\021$\334x\326?/\013\372B\260`\352\277/\013\372B\260`\352\277\304\025\021$\334x\326?z\220\2053\306l\370?/\013\372B\260`\352\277\304\025\021$\334x\326?z\220\2053\306l\370?\304\025\021$\334x\326?/\013\372B\260`\352\277/\013\372B\260`\352\277/\013\372B\260`\352\277z\220\2053\306l\370?z\220\2053\306l\370?/\013\372B\260`\352\277/\013\372B\260`\352\277/\013\372B\260`\352\277z\220\2053\306l\370?\304\025\021$\334x\326?\304\025\021$\334x\326?/\013\372B\260`\352\277/\013\372B\260`\352\277/\013\372B\260`\352\277z\220\2053\306l\370?\304\025\021$\334x\326?\304\025\021$\334x\326?\304\025\021$\334x\326?z\220\2053\306l\370?/\013\372B\260`\352\277z\220\2053\306l\370?\304\025\021$\334x\326?/\013\372B\260`\352\277/\013\372B\260`\352\277/\013\372B\260`\352\277/\013\372B\260`\352\277z\220\2053\306l\370?/\013\372B\260`\352\277z\220\2053\306l\370?/\013\372B\260`\352\277z\220\2053\306l\370?/\013\372B\260`\352\277/\013\372B\260`\352\277/\013\372B\260`\352\277/\013\372B\260`\352\277/\013\372B\260`\352\277z\220\2053\306l\370?/\013\372B\260`\352\277/\013\372B\260`\352\277/\013\372B\260`\352\277\304\025\021$\334x\326?/\013\372B\260`\352\277z\220\2053\306l\370?/\013\372B\260`\352\277/\013\372B\260`\352\277/\013\372B\260`\352\277/\013\372B\260`\352\277z\220\2053\306l\370?/\013\372B\260`\352\277z\220\2053\306l\370?/\013\372B\260`\352\277\034\253\275\266\237\227\366\277/\013\372B\260`\352\277z\220\2053\306l\370?/\013\372B\260`\352\277z\220\2053\306l\370?\304\025\021$\334x\326?\304\025\021$\334x\326?\304\025\021$\334x\326?/\013\372B\260`\352\277/\013\372B\260`\352\277\304\025\021$\334x\326?/\013\372B\260`\352\277z\220\2053\306l\370?/\013\372B\260`\352\277/\013\372B\260`\352\277/\013\372B\260`\352\277\304\025\021$\334x\326?/\013\372B\260`\352\277\304\025\021$\334x\326?z\220\2053\306l\370?/\013\372B\260`\352\277z\220\2053\306l\370?"
      }
    }
  }
}
node {
  name: "normalize_element/component_2"
  op: "Const"
  device: "/device:CPU:0"
  attr {
    key: "_output_shapes"
    value {
      list {
        shape {
          dim {
            size: 313
          }
        }
      }
    }
  }
  attr {
    key: "dtype"
    value {
      type: DT_DOUBLE
    }
  }
  attr {
    key: "value"
    value {
      tensor {
        dtype: DT_DOUBLE
        tensor_shape {
          dim {
            size: 313
          }
        }
        tensor_content: "\033\275\342\213P\375\340\277\330m\340I\266\036\326?]\020\323=^\205\354\277@e\304;e!\360\277s\016)\034\337V\352\277|R\026W.\221\372?\373\'\226\203\"\334\331?G\022}_\335\263\356\277\357\3006\317NZ\345\2775f\231\314\2448\361\277l\356\254e\315%\272?]\020\323=^\205\354\277\330m\340I\266\036\326?\374%\237\313h\207\361?\276L\030\362\260\005\364?\320d\200\276\342\250\002@\006\024\215T\347\225\304\277\374%\237\313h\207\361?\357\3006\317NZ\345\277l\356\254e\315%\272?B\232\n?A\002\371?55\242B\'\325\354\277\304\t\256\347\306\334\336\277\254q4\215\264{\332?55\242B\'\325\354\277(yB\347;\351\346\277]\020\323=^\205\354\277l\356\254e\315%\272?\241\370\000O\211`\361\277\256,r\301%*\371?\013\320*\235\374\331\342?\254\367+\276II\360\277R\231\226\267\354\276\333\277G\022}_\335\263\356\277\304\t\256\347\306\334\336\277\260\231\242[qf\000@.\337\340}\200\001\330\277.\212\340\326h\227\346?\256,r\301%*\371?\027\234g\312\205\n\345\277\240\n\325\330\340\371\345\27755\242B\'\325\354\27755\242B\'\325\354\277\350ju\n\250\206\320\277@e\304;e!\360\277\324Jn\3201\327\361?55\242B\'\325\354\277\024\300\017\3364=\336\277\256,r\301%*\371?\240\n\325\330\340\371\345\277]\020\323=^\205\354\277s\016)\034\337V\352\277}@B\315\326\367\345?\276L\030\362\260\005\364?\013\320*\235\374\331\342?\350\240\272\030=)\265?\256,r\301%*\371?\261\347\257\365\226\330\347\277\240\n\325\330\340\371\345\277B\232\n?A\002\371?\324Jn\3201\327\361?\027\234g\312\205\n\345\277\320\200\352m8\243\357\277l\270gW8\203\325\277({9\237\365=\377?\001\236\021\354\0049\347\277\252\3073?\205\247\267?\0377Ld\246\003\357\277\031\002\245W\337N\362?B\232\n?A\002\371?G\022}_\335\263\356\27755\242B\'\325\354\277\002\214=b\255\237\362\277\260\231\242[qf\000@\330m\340I\266\036\326?B\232\n?A\002\371?\303\304\212\022M\267\351\277s\016)\034\337V\352\277\0377Ld\246\003\357\277\260\231\242[qf\000@\260\231\242[qf\000@\013\320*\235\374\331\342?\274n\311M\246\343\324\277\276L\030\362\260\005\364?.\337\340}\200\001\330\277\256,r\301%*\371?|P\037\237t<\342\277\307\345\005\324\027\252\345\277\241O\370\255Z\037\333\277\350\240\272\030=)\265?\013\320*\235\374\331\342?\002\214=b\255\237\362\277\304\t\256\347\306\334\336\277B\232\n?A\002\371?\304\t\256\347\306\334\336\277\260\231\242[qf\000@55\242B\'\325\354\277\276L\030\362\260\005\364?\373\'\226\203\"\334\331?s\016)\034\337V\352\277\315\366\243\303DX\345?\002\214=b\255\237\362\277\330m\340I\266\036\326?55\242B\'\325\354\277\304\t\256\347\306\334\336\2775f\231\314\2448\361\277\364\341\261\220\031M\341\277\027\234g\312\205\n\345\277]\020\323=^\205\354\277B\232\n?A\002\371?N\324\302]}\257\004@\307\345\005\324\027\252\345\277\013\320*\235\374\331\342?55\242B\'\325\354\277\0377Ld\246\003\357\277\330m\340I\266\036\326?\324Jn\3201\327\361?\261\347\257\365\226\330\347\277G\022}_\335\263\356\277\373\'\226\203\"\334\331?\254q4\215\264{\332?\364\341\261\220\031M\341\277\027\234g\312\205\n\345\277\357\3006\317NZ\345\277G\022}_\335\263\356\277\330m\340I\266\036\326?\373\'\226\203\"\334\331?\013\320*\235\374\331\342?]A\312\307\333\350\360\277\276L\030\362\260\005\364?\256,r\301%*\371?\027\234g\312\205\n\345\277\013\320*\235\374\331\342?\276L\030\362\260\005\364?\320d\200\276\342\250\002@\254\367+\276II\360\277\353\364\273\264\233\321\312\277\350ju\n\250\206\320\277\307\345\005\324\027\252\345\277\002\3434\301~^\334\277\211\014\177\372_(\350\277\304\t\256\347\306\334\336\277\276L\030\362\260\005\364?\304\t\256\347\306\334\336\277\0377Ld\246\003\357\277\013\320*\235\374\331\342?]\020\323=^\205\354\277\357\3006\317NZ\345\277@\335\325R\026\377\361?s\016)\034\337V\352\277\276L\030\362\260\005\364?\303\304\212\022M\267\351\27755\242B\'\325\354\277\374%\237\313h\207\361?\260\231\242[qf\000@*gn]\344O\362\277\013\320*\235\374\331\342?.\337\340}\200\001\330\277\374%\237\313h\207\361?\252\3073?\205\247\267?\211\014\177\372_(\350\277\324Jn\3201\327\361?\324\241e/\003\226\353\277Uu\356\243=\214\342\277\374%\237\313h\207\361?B\232\n?A\002\371?\332\260\014gv\357\362\277\374%\237\313h\207\361?\353\364\273\264\233\321\312\277y\035\320SR\260\361\277G\022}_\335\263\356\277\006\024\215T\347\225\304\277B\232\n?A\002\371?\374%\237\313h\207\361?\367[\033ioS\357\27755\242B\'\325\354\277\304\t\256\347\306\334\336\277\027\234g\312\205\n\345\277\261\347\257\365\226\330\347\277]\020\323=^\205\354\277\254\367+\276II\360\277\276L\030\362\260\005\364?(yB\347;\351\346\277\013\320*\235\374\331\342?B\232\n?A\002\371?\331\302\340\360\315\210\347\277w\244^(\375<\260\277\0377Ld\246\003\357\277@e\304;e!\360\27755\242B\'\325\354\277\307\345\005\324\027\252\345\277]\020\323=^\205\354\277\013\320*\235\374\331\342?\304\t\256\347\306\334\336\277\274n\311M\246\343\324\277\260\231\242[qf\000@}@B\315\326\367\345?\304\t\256\347\306\334\336\277\374%\237\313h\207\361?\027\234g\312\205\n\345\277N\324\302]}\257\004@\254\367+\276II\360\2775f\231\314\2448\361\277\352\237\273\r\204g\351\277\254\367+\276II\360\277\013\320*\235\374\331\342?@e\304;e!\360\2773zd\016\266&\376?\274n\311M\246\343\324\277\330m\340I\266\036\326?B\232\n?A\002\371?\357\3006\317NZ\345\277\311\242:\300B\255\354\277s\016)\034\337V\352\277\254q4\215\264{\332?\307\345\005\324\027\252\345\277:V\035\004\362\307\350\277]\020\323=^\205\354\277\357\3006\317NZ\345\277\315\366\243\303DX\345?\307\345\005\324\027\252\345\277\276L\030\362\260\005\364?\304\t\256\347\306\334\336\2775f\231\314\2448\361\277s\016)\034\337V\352\277\276L\030\362\260\005\364?\226\371\325\337\310w\362\277\374%\237\313h\207\361?\304\t\256\347\306\334\336\277\315\366\243\303DX\345?]\020\323=^\205\354\277\013\320*\235\374\331\342?\352\237\273\r\204g\351\277G\022}_\335\263\356\277\013\320*\235\374\331\342?\276L\030\362\260\005\364?]\020\323=^\205\354\277\373\361Pu\2159\265\277\374%\237\313h\207\361?\241O\370\255Z\037\333\277\204\034\373\302\022\231\360\27755\242B\'\325\354\277\240\n\325\330\340\371\345\277\256,r\301%*\371?\276L\030\362\260\005\364?\304\t\256\347\306\334\336\27755\242B\'\325\354\277\303\304\212\022M\267\351\277B\232\n?A\002\371?l\356\254e\315%\272?\013\320*\235\374\331\342?\0377Ld\246\003\357\277\364\341\261\220\031M\341\277\211\014\177\372_(\350\277|R\026W.\221\372?\013\320*\235\374\331\342?\330m\340I\266\036\326?\013\320*\235\374\331\342?|R\026W.\221\372?G\022}_\335\263\356\277\256,r\301%*\371?\350\240\272\030=)\265?\024\300\017\3364=\336\277\352\237\273\r\204g\351\277\274n\311M\246\343\324\277\367[\033ioS\357\277\031\002\245W\337N\362?\357\3006\317NZ\345\277\260\231\242[qf\000@\304\t\256\347\306\334\336\277\324Jn\3201\327\361?\211\014\177\372_(\350\277(yB\347;\351\346\277\274n\311M\246\343\324\277\304\t\256\347\306\334\336\277\357\3006\317NZ\345\277\260\231\242[qf\000@.\337\340}\200\001\330\2775f\231\314\2448\361\277]\020\323=^\205\354\277\353\364\273\264\233\321\312\277\364\341\261\220\031M\341\277B\232\n?A\002\371?.\337\340}\200\001\330\277K3\370 \250\246\352\277\307\345\005\324\027\252\345\277\352\237\273\r\204g\351\277#\n\272\213K\204\003@55\242B\'\325\354\277B\232\n?A\002\371?\240\n\325\330\340\371\345\277\311\3231J\300\020\361\277b1N\377(x\350\277B\232\n?A\002\371?5f\231\314\2448\361\277\276L\030\362\260\005\364?l\356\254e\315%\272?\241O\370\255Z\037\333\277\330m\340I\266\036\326?\367[\033ioS\357\277\357\3006\317NZ\345\277\254q4\215\264{\332?55\242B\'\325\354\277\324Jn\3201\327\361?\226\371\325\337\310w\362\277\0377Ld\246\003\357\277.\337\340}\200\001\330\277\330m\340I\266\036\326?55\242B\'\325\354\277\254q4\215\264{\332?\031\002\245W\337N\362?]\020\323=^\205\354\277B\232\n?A\002\371?"
      }
    }
  }
}
node {
  name: "normalize_element/component_3"
  op: "Const"
  device: "/device:CPU:0"
  attr {
    key: "_output_shapes"
    value {
      list {
        shape {
          dim {
            size: 313
          }
        }
      }
    }
  }
  attr {
    key: "dtype"
    value {
      type: DT_DOUBLE
    }
  }
  attr {
    key: "value"
    value {
      tensor {
        dtype: DT_DOUBLE
        tensor_shape {
          dim {
            size: 313
          }
        }
        tensor_content: "\270\223\020\236\036\363\337\277J3\353;\326\335\307?\343@\222W\231\321\340\277\256\317\242\370&\001\360\277\037\360k\244\363i\350\277\304B\001\335\000i\376?J3\353;\326\335\307?N\2611\3409R\356\277\367%0q\267Y\343\277N\2611\3409R\356\277\360.\246h\255\201\342\277\367%0q\267Y\343\277\253\245\374\214\nC\336\277Y\031\3029>\330\346?\335\32279\330\226\006@\310\355\231\037\272\016\004@\350?YsO_\324?\234\277%\217\242H\357?\350?YsO_\324?\253\245\374\214\nC\336\277\200\234\235\207\234\370\365?\203\333\300Y\3162\331\277-\336\177\265\007\032\352\277\205\313F3v\307\263\277\031\371\341\233\351\221\347\277\031\371\341\233\351\221\347\277H\272\247\327/z\355\277\203\333\300Y\3162\331\277Z\225#0h}\365\277z\245\023\177\222 \365?\017\233\217D6\364\253?\256\317\242\370&\001\360\277\022\002X\223\337\271\346\277H\272\247\327/z\355\277h\377\2307\246\322\325\277\360\262Dr\203\334\363?h\377\2307\246\322\325\277J3\353;\326\335\307?\013\217l\224\253<\367?\203\333\300Y\3162\331\277\3527\034`\243\251\341\277Z\225#0h}\365\277\203\333\300Y\3162\331\2777F\020\017\014\240\342?\256\317\242\370&\001\360\277\360\262Dr\203\334\363?S\236\231\'^\245\364\277\367%0q\267Y\343\277\366\251\316z\215\264\364?\023\372\032\2003\004\304\277\256\317\242\370&\001\360\277\037\360k\244\363i\350\277h\377\2307\246\322\325\277\360\262Dr\203\334\363?\205\313F3v\307\263\277I\262j\304\203\304\312\277l\267\377m~p\363?I\262j\304\203\304\312\277\023\372\032\2003\004\304\277*\026-\371\214B\000@\360\262Dr\203\334\363?\253\245\374\214\nC\336\277\022\002X\223\337\271\346\277\363=\347\252\273z\273?\273\377\205\016\246^\002@I\262j\304\203\304\312\277\023\372\032\2003\004\304\277:\314\223\306\033\312\353\277Y\031\3029>\330\346?*\026-\371\214B\000@\326\231\336+c\021\365\2773\325\t\276\021\362\352\277\023\372\032\2003\004\304\277\304B\001\335\000i\376?I\262j\304\203\304\312\277\017\233\217D6\364\253?\031\371\341\233\351\221\347\277\265\306,\0011\331\360\277\031\371\341\233\351\221\347\2773Y\250\307\347L\374?*\026-\371\214B\000@J3\353;\326\335\307?\024{\233\367\205\035\301?\360\262Dr\203\334\363?h\377\2307\246\322\325\277\217\321\021~\216\230\355?\001G\027j\246^^?\023\372\032\2003\004\304\277N\2611\3409R\356\277I\262j\304\203\304\312\277\205\313F3v\307\263\277h\377\2307\246\322\325\277u\355\254H\272\202\327\277\360\262Dr\203\334\363?M#q\025~r\322\2773Y\250\307\347L\374?nz\301I\206\005\370\277\234\277%\217\242H\357?J3\353;\326\335\307?\031\371\341\233\351\221\347\277J3\353;\326\335\307?\205\313F3v\307\263\277\205\313F3v\307\263\277\004\024D\202\313\t\345\277-\336\177\265\007\032\352\277E\260\205\026J\365\362\277.\326B\242[d\307\277\235\267\350{\366\222\334\277:\314\223\306\033\312\353\277\304B\001\335\000i\376?61=\331\375\300\t@\376\034\272y\3011\344\277\203\333\300Y\3162\331\277N\2611\3409R\356\277g\2037A|-\367\277h\377\2307\246\322\325\277\000y\355\224\255\000\003@I\262j\304\203\304\312\277:\314\223\306\033\312\353\277\017\233\217D6\364\253?\205\313F3v\307\263\277I\262j\304\203\304\312\277\235\267\350{\366\222\334\277N\2611\3409R\356\277N\2611\3409R\356\277\017\233\217D6\364\253?\242oO\262\3160\372?\203\333\300Y\3162\331\277?\271\373\r@\035\362\277\360\262Dr\203\334\363?\351\273\272iy\004\363?\367%0q\267Y\343\277\205\313F3v\307\263\277_\311\353\\j\300\361?Y\327\3624\323*\006@:\314\223\306\033\312\353\277f\007\326JR\210\350?m\376_S\\`\351?\203\333\300Y\3162\331\277.\326B\242[d\307\277\203\333\300Y\3162\331\277-\336\177\265\007\032\352\277\360\262Dr\203\334\363?\004\024D\202\313\t\345\277g\2037A|-\367\277\203\333\300Y\3162\331\277h\377\2307\246\322\325\277\370\035\363]\013\244\300\277_\311\353\\j\300\361?:\314\223\306\033\312\353\277\360\262Dr\203\334\363?h\377\2307\246\322\325\277nz\301I\206\005\370\277R\"814\000\346?\273\377\205\016\246^\002@A\303\035\317%\242\354\277J3\353;\326\335\307?\253\245\374\214\nC\336\277\234\277%\217\242H\357?h\377\2307\246\322\325\277\253\245\374\214\nC\336\277+\346\274\310\263\317\334?\343@\222W\231\321\340\277gl\235\252V\033\231\277\234\277%\217\242H\357?7F\020\017\014\240\342?\344\207\362<w\301\366\277Y\031\3029>\330\346?\366-m\204c\017\326?Z\225#0h}\365\277H\272\247\327/z\355\277J3\353;\326\335\307?_\311\353\\j\300\361?\225\310\233\206\230p\356?8\302q\0056E\361\277\004\024D\202\313\t\345\277\203\333\300Y\3162\331\277.\326B\242[d\307\277I\262j\304\203\304\312\277:\314\223\306\033\312\353\277\256\317\242\370&\001\360\277{\354sdp\020\353?\360.\246h\255\201\342\277\205\313F3v\307\263\277_\311\353\\j\300\361?Z\021\205&\222\"\324\277\013\013\316\212\325\341\345\2773\325\t\276\021\362\352\2771\313\347\374+m\360\277?\271\373\r@\035\362\277\203\333\300Y\3162\331\277?\271\373\r@\035\362\277\004\024D\202\313\t\345\277M#q\025~r\322\277\017\233\217D6\364\253?\251f\331\272\330\010\373?J3\353;\326\335\307?\031\371\341\233\351\221\347\277R\"814\000\346?\235\267\350{\366\222\334\27761=\331\375\300\t@Z\225#0h}\365\277N\2611\3409R\356\277?5]\004j\302\320\277:\314\223\306\033\312\353\277-\336\177\265\007\032\352\277\256\317\242\370&\001\360\2773Y\250\307\347L\374?\017\233\217D6\364\253?\017\233\217D6\364\253?*\026-\371\214B\000@J3\353;\326\335\307?\367%0q\267Y\343\277:\314\223\306\033\312\353\277\205\313F3v\307\263\277\037\360k\244\363i\350\277\220\311\324j\342\342\332\277\256\317\242\370&\001\360\277\200\353:\200&\236\316?I\262j\304\203\304\312\277\220\311\324j\342\342\332\277\234\277%\217\242H\357?\235\267\350{\366\222\334\277N\2611\3409R\356\277\265\306,\0011\331\360\277\360\262Dr\203\334\363?\256\317\242\370&\001\360\277\225\310\233\206\230p\356?\203\333\300Y\3162\331\277+\346\274\310\263\317\334?\376\034\272y\3011\344\277\017\233\217D6\364\253?:\314\223\306\033\312\353\277A\303\035\317%\242\354\277\017\233\217D6\364\253?\360\262Dr\203\334\363?U\250\273\350C*\357\277J3\353;\326\335\307?\210\332\207u\204\300\354?\023\372\032\2003\004\304\277\273\275\266\t;\261\361\277N\2611\3409R\356\277\023\372\032\2003\004\304\277\325\326\034P[|\360?\360\262Dr\203\334\363?\343@\222W\231\321\340\277\203\333\300Y\3162\331\277\031\371\341\233\351\221\347\277_\311\353\\j\300\361?\253\245\374\214\nC\336\277\205\313F3v\307\263\277:\314\223\306\033\312\353\277I\262j\304\203\304\312\277\203\333\300Y\3162\331\2773Y\250\307\347L\374?-\336\177\265\007\032\352\277J3\353;\326\335\307?\370\035\363]\013\244\300\277\245G\344\303\344\244\007@\326\231\336+c\021\365\277z\245\023\177\222 \365?I\262j\304\203\304\312\2773\325\t\276\021\362\352\277d\216\222\346\253$\316\277M#q\025~r\322\277?\271\373\r@\035\362\277L\351\336#\277z\004@\022\002X\223\337\271\346\277\304B\001\335\000i\376?\203\333\300Y\3162\331\277\360\262Dr\203\334\363?\203\333\300Y\3162\331\277h\377\2307\246\322\325\277M#q\025~r\322\277h\377\2307\246\322\325\277J3\353;\326\335\307?\376\245\351c\n\317\n@h\377\2307\246\322\325\277E\260\205\026J\365\362\277H\272\247\327/z\355\277+\346\274\310\263\317\334?h\377\2307\246\322\325\277\242oO\262\3160\372?h\377\2307\246\322\325\277I\262j\304\203\304\312\277\031\371\341\233\351\221\347\277\031\371\341\233\351\221\347\277\245G\344\303\344\244\007@\004\024D\202\313\t\345\277_\311\353\\j\300\361?\205\313F3v\307\263\277J3\353;\326\335\307?\367%0q\267Y\343\277\021\206\366\234\265\024\370?:\314\223\306\033\312\353\277\360\262Dr\203\334\363?\253\245\374\214\nC\336\277+\346\274\310\263\317\334?\205\313F3v\307\263\2773\325\t\276\021\362\352\277\350?YsO_\324?h\377\2307\246\322\325\277N\2611\3409R\356\277\360\262Dr\203\334\363?\256\317\242\370&\001\360\277\031\371\341\233\351\221\347\277\270\223\020\236\036\363\337\277\017\233\217D6\364\253?\031\371\341\233\351\221\347\277h\377\2307\246\322\325\277Y\031\3029>\330\346?\265\306,\0011\331\360\277\242oO\262\3160\372?"
      }
    }
  }
}
node {
  name: "normalize_element/component_4"
  op: "Const"
  device: "/device:CPU:0"
  attr {
    key: "_output_shapes"
    value {
      list {
        shape {
          dim {
            size: 313
          }
        }
      }
    }
  }
  attr {
    key: "dtype"
    value {
      type: DT_INT64
    }
  }
  attr {
    key: "value"
    value {
      tensor {
        dtype: DT_INT64
        tensor_shape {
          dim {
            size: 313
          }
        }
        tensor_content: "Q\000\000\000\000\000\000\000N\000\000\000\000\000\000\000J\000\000\000\000\000\000\000P\000\000\000\000\000\000\000Q\000\000\000\000\000\000\000I\000\000\000\000\000\000\000Q\000\000\000\000\000\000\000P\000\000\000\000\000\000\000O\000\000\000\000\000\000\000J\000\000\000\000\000\000\000L\000\000\000\000\000\000\000H\000\000\000\000\000\000\000Q\000\000\000\000\000\000\000M\000\000\000\000\000\000\000F\000\000\000\000\000\000\000I\000\000\000\000\000\000\000O\000\000\000\000\000\000\000H\000\000\000\000\000\000\000N\000\000\000\000\000\000\000N\000\000\000\000\000\000\000O\000\000\000\000\000\000\000I\000\000\000\000\000\000\000L\000\000\000\000\000\000\000I\000\000\000\000\000\000\000M\000\000\000\000\000\000\000I\000\000\000\000\000\000\000N\000\000\000\000\000\000\000Q\000\000\000\000\000\000\000N\000\000\000\000\000\000\000G\000\000\000\000\000\000\000K\000\000\000\000\000\000\000O\000\000\000\000\000\000\000Q\000\000\000\000\000\000\000Q\000\000\000\000\000\000\000H\000\000\000\000\000\000\000F\000\000\000\000\000\000\000O\000\000\000\000\000\000\000K\000\000\000\000\000\000\000I\000\000\000\000\000\000\000P\000\000\000\000\000\000\000R\000\000\000\000\000\000\000R\000\000\000\000\000\000\000G\000\000\000\000\000\000\000N\000\000\000\000\000\000\000O\000\000\000\000\000\000\000I\000\000\000\000\000\000\000H\000\000\000\000\000\000\000Q\000\000\000\000\000\000\000L\000\000\000\000\000\000\000K\000\000\000\000\000\000\000Q\000\000\000\000\000\000\000R\000\000\000\000\000\000\000O\000\000\000\000\000\000\000I\000\000\000\000\000\000\000J\000\000\000\000\000\000\000J\000\000\000\000\000\000\000M\000\000\000\000\000\000\000F\000\000\000\000\000\000\000N\000\000\000\000\000\000\000I\000\000\000\000\000\000\000J\000\000\000\000\000\000\000I\000\000\000\000\000\000\000G\000\000\000\000\000\000\000I\000\000\000\000\000\000\000F\000\000\000\000\000\000\000K\000\000\000\000\000\000\000F\000\000\000\000\000\000\000K\000\000\000\000\000\000\000F\000\000\000\000\000\000\000I\000\000\000\000\000\000\000K\000\000\000\000\000\000\000L\000\000\000\000\000\000\000H\000\000\000\000\000\000\000G\000\000\000\000\000\000\000K\000\000\000\000\000\000\000Q\000\000\000\000\000\000\000R\000\000\000\000\000\000\000R\000\000\000\000\000\000\000J\000\000\000\000\000\000\000G\000\000\000\000\000\000\000M\000\000\000\000\000\000\000M\000\000\000\000\000\000\000L\000\000\000\000\000\000\000L\000\000\000\000\000\000\000R\000\000\000\000\000\000\000O\000\000\000\000\000\000\000N\000\000\000\000\000\000\000J\000\000\000\000\000\000\000P\000\000\000\000\000\000\000I\000\000\000\000\000\000\000G\000\000\000\000\000\000\000I\000\000\000\000\000\000\000M\000\000\000\000\000\000\000J\000\000\000\000\000\000\000R\000\000\000\000\000\000\000K\000\000\000\000\000\000\000F\000\000\000\000\000\000\000N\000\000\000\000\000\000\000K\000\000\000\000\000\000\000N\000\000\000\000\000\000\000G\000\000\000\000\000\000\000P\000\000\000\000\000\000\000M\000\000\000\000\000\000\000M\000\000\000\000\000\000\000I\000\000\000\000\000\000\000Q\000\000\000\000\000\000\000K\000\000\000\000\000\000\000H\000\000\000\000\000\000\000R\000\000\000\000\000\000\000I\000\000\000\000\000\000\000F\000\000\000\000\000\000\000R\000\000\000\000\000\000\000I\000\000\000\000\000\000\000Q\000\000\000\000\000\000\000P\000\000\000\000\000\000\000P\000\000\000\000\000\000\000F\000\000\000\000\000\000\000G\000\000\000\000\000\000\000G\000\000\000\000\000\000\000N\000\000\000\000\000\000\000G\000\000\000\000\000\000\000N\000\000\000\000\000\000\000G\000\000\000\000\000\000\000P\000\000\000\000\000\000\000R\000\000\000\000\000\000\000G\000\000\000\000\000\000\000N\000\000\000\000\000\000\000G\000\000\000\000\000\000\000Q\000\000\000\000\000\000\000H\000\000\000\000\000\000\000K\000\000\000\000\000\000\000J\000\000\000\000\000\000\000G\000\000\000\000\000\000\000M\000\000\000\000\000\000\000H\000\000\000\000\000\000\000N\000\000\000\000\000\000\000P\000\000\000\000\000\000\000N\000\000\000\000\000\000\000R\000\000\000\000\000\000\000R\000\000\000\000\000\000\000R\000\000\000\000\000\000\000G\000\000\000\000\000\000\000L\000\000\000\000\000\000\000K\000\000\000\000\000\000\000N\000\000\000\000\000\000\000G\000\000\000\000\000\000\000I\000\000\000\000\000\000\000K\000\000\000\000\000\000\000M\000\000\000\000\000\000\000O\000\000\000\000\000\000\000G\000\000\000\000\000\000\000F\000\000\000\000\000\000\000I\000\000\000\000\000\000\000K\000\000\000\000\000\000\000H\000\000\000\000\000\000\000G\000\000\000\000\000\000\000L\000\000\000\000\000\000\000N\000\000\000\000\000\000\000J\000\000\000\000\000\000\000F\000\000\000\000\000\000\000R\000\000\000\000\000\000\000L\000\000\000\000\000\000\000L\000\000\000\000\000\000\000L\000\000\000\000\000\000\000J\000\000\000\000\000\000\000O\000\000\000\000\000\000\000I\000\000\000\000\000\000\000L\000\000\000\000\000\000\000Q\000\000\000\000\000\000\000J\000\000\000\000\000\000\000R\000\000\000\000\000\000\000Q\000\000\000\000\000\000\000L\000\000\000\000\000\000\000N\000\000\000\000\000\000\000Q\000\000\000\000\000\000\000M\000\000\000\000\000\000\000P\000\000\000\000\000\000\000M\000\000\000\000\000\000\000H\000\000\000\000\000\000\000P\000\000\000\000\000\000\000P\000\000\000\000\000\000\000O\000\000\000\000\000\000\000L\000\000\000\000\000\000\000I\000\000\000\000\000\000\000I\000\000\000\000\000\000\000I\000\000\000\000\000\000\000O\000\000\000\000\000\000\000K\000\000\000\000\000\000\000Q\000\000\000\000\000\000\000G\000\000\000\000\000\000\000K\000\000\000\000\000\000\000L\000\000\000\000\000\000\000L\000\000\000\000\000\000\000L\000\000\000\000\000\000\000P\000\000\000\000\000\000\000I\000\000\000\000\000\000\000M\000\000\000\000\000\000\000J\000\000\000\000\000\000\000O\000\000\000\000\000\000\000H\000\000\000\000\000\000\000I\000\000\000\000\000\000\000L\000\000\000\000\000\000\000J\000\000\000\000\000\000\000J\000\000\000\000\000\000\000L\000\000\000\000\000\000\000K\000\000\000\000\000\000\000P\000\000\000\000\000\000\000F\000\000\000\000\000\000\000N\000\000\000\000\000\000\000I\000\000\000\000\000\000\000L\000\000\000\000\000\000\000M\000\000\000\000\000\000\000H\000\000\000\000\000\000\000O\000\000\000\000\000\000\000G\000\000\000\000\000\000\000Q\000\000\000\000\000\000\000F\000\000\000\000\000\000\000Q\000\000\000\000\000\000\000H\000\000\000\000\000\000\000L\000\000\000\000\000\000\000H\000\000\000\000\000\000\000N\000\000\000\000\000\000\000R\000\000\000\000\000\000\000J\000\000\000\000\000\000\000Q\000\000\000\000\000\000\000F\000\000\000\000\000\000\000G\000\000\000\000\000\000\000N\000\000\000\000\000\000\000N\000\000\000\000\000\000\000N\000\000\000\000\000\000\000L\000\000\000\000\000\000\000K\000\000\000\000\000\000\000R\000\000\000\000\000\000\000O\000\000\000\000\000\000\000L\000\000\000\000\000\000\000H\000\000\000\000\000\000\000N\000\000\000\000\000\000\000R\000\000\000\000\000\000\000I\000\000\000\000\000\000\000M\000\000\000\000\000\000\000J\000\000\000\000\000\000\000P\000\000\000\000\000\000\000N\000\000\000\000\000\000\000O\000\000\000\000\000\000\000J\000\000\000\000\000\000\000K\000\000\000\000\000\000\000H\000\000\000\000\000\000\000Q\000\000\000\000\000\000\000K\000\000\000\000\000\000\000O\000\000\000\000\000\000\000J\000\000\000\000\000\000\000L\000\000\000\000\000\000\000N\000\000\000\000\000\000\000R\000\000\000\000\000\000\000I\000\000\000\000\000\000\000K\000\000\000\000\000\000\000O\000\000\000\000\000\000\000M\000\000\000\000\000\000\000F\000\000\000\000\000\000\000L\000\000\000\000\000\000\000H\000\000\000\000\000\000\000F\000\000\000\000\000\000\000O\000\000\000\000\000\000\000I\000\000\000\000\000\000\000Q\000\000\000\000\000\000\000P\000\000\000\000\000\000\000F\000\000\000\000\000\000\000H\000\000\000\000\000\000\000G\000\000\000\000\000\000\000O\000\000\000\000\000\000\000F\000\000\000\000\000\000\000R\000\000\000\000\000\000\000G\000\000\000\000\000\000\000R\000\000\000\000\000\000\000G\000\000\000\000\000\000\000I\000\000\000\000\000\000\000I\000\000\000\000\000\000\000R\000\000\000\000\000\000\000M\000\000\000\000\000\000\000N\000\000\000\000\000\000\000L\000\000\000\000\000\000\000P\000\000\000\000\000\000\000F\000\000\000\000\000\000\000P\000\000\000\000\000\000\000F\000\000\000\000\000\000\000P\000\000\000\000\000\000\000P\000\000\000\000\000\000\000F\000\000\000\000\000\000\000J\000\000\000\000\000\000\000I\000\000\000\000\000\000\000Q\000\000\000\000\000\000\000M\000\000\000\000\000\000\000M\000\000\000\000\000\000\000H\000\000\000\000\000\000\000G\000\000\000\000\000\000\000K\000\000\000\000\000\000\000N\000\000\000\000\000\000\000Q\000\000\000\000\000\000\000N\000\000\000\000\000\000\000N\000\000\000\000\000\000\000K\000\000\000\000\000\000\000O\000\000\000\000\000\000\000M\000\000\000\000\000\000\000H\000\000\000\000\000\000\000J\000\000\000\000\000\000\000J\000\000\000\000\000\000\000Q\000\000\000\000\000\000\000J\000\000\000\000\000\000\000L\000\000\000\000\000\000\000N\000\000\000\000\000\000\000H\000\000\000\000\000\000\000M\000\000\000\000\000\000\000G\000\000\000\000\000\000\000"
      }
    }
  }
}
node {
  name: "normalize_element/component_5"
  op: "Const"
  device: "/device:CPU:0"
  attr {
    key: "_output_shapes"
    value {
      list {
        shape {
          dim {
            size: 313
          }
        }
      }
    }
  }
  attr {
    key: "dtype"
    value {
      type: DT_INT64
    }
  }
  attr {
    key: "value"
    value {
      tensor {
        dtype: DT_INT64
        tensor_shape {
          dim {
            size: 313
          }
        }
        tensor_content: "\001\000\000\000\000\000\000\000\001\000\000\000\000\000\000\000\002\000\000\000\000\000\000\000\003\000\000\000\000\000\000\000\002\000\000\000\000\000\000\000\001\000\000\000\000\000\000\000\001\000\000\000\000\000\000\000\003\000\000\000\000\000\000\000\001\000\000\000\000\000\000\000\003\000\000\000\000\000\000\000\001\000\000\000\000\000\000\000\001\000\000\000\000\000\000\000\001\000\000\000\000\000\000\000\001\000\000\000\000\000\000\000\001\000\000\000\000\000\000\000\001\000\000\000\000\000\000\000\001\000\000\000\000\000\000\000\001\000\000\000\000\000\000\000\002\000\000\000\000\000\000\000\001\000\000\000\000\000\000\000\001\000\000\000\000\000\000\000\003\000\000\000\000\000\000\000\001\000\000\000\000\000\000\000\001\000\000\000\000\000\000\000\003\000\000\000\000\000\000\000\002\000\000\000\000\000\000\000\003\000\000\000\000\000\000\000\001\000\000\000\000\000\000\000\003\000\000\000\000\000\000\000\001\000\000\000\000\000\000\000\001\000\000\000\000\000\000\000\003\000\000\000\000\000\000\000\002\000\000\000\000\000\000\000\003\000\000\000\000\000\000\000\001\000\000\000\000\000\000\000\001\000\000\000\000\000\000\000\001\000\000\000\000\000\000\000\001\000\000\000\000\000\000\000\001\000\000\000\000\000\000\000\002\000\000\000\000\000\000\000\001\000\000\000\000\000\000\000\002\000\000\000\000\000\000\000\003\000\000\000\000\000\000\000\002\000\000\000\000\000\000\000\003\000\000\000\000\000\000\000\001\000\000\000\000\000\000\000\002\000\000\000\000\000\000\000\002\000\000\000\000\000\000\000\001\000\000\000\000\000\000\000\003\000\000\000\000\000\000\000\001\000\000\000\000\000\000\000\002\000\000\000\000\000\000\000\001\000\000\000\000\000\000\000\001\000\000\000\000\000\000\000\001\000\000\000\000\000\000\000\001\000\000\000\000\000\000\000\001\000\000\000\000\000\000\000\003\000\000\000\000\000\000\000\003\000\000\000\000\000\000\000\001\000\000\000\000\000\000\000\001\000\000\000\000\000\000\000\001\000\000\000\000\000\000\000\002\000\000\000\000\000\000\000\001\000\000\000\000\000\000\000\001\000\000\000\000\000\000\000\002\000\000\000\000\000\000\000\001\000\000\000\000\000\000\000\002\000\000\000\000\000\000\000\001\000\000\000\000\000\000\000\001\000\000\000\000\000\000\000\003\000\000\000\000\000\000\000\002\000\000\000\000\000\000\000\003\000\000\000\000\000\000\000\001\000\000\000\000\000\000\000\001\000\000\000\000\000\000\000\001\000\000\000\000\000\000\000\003\000\000\000\000\000\000\000\001\000\000\000\000\000\000\000\002\000\000\000\000\000\000\000\001\000\000\000\000\000\000\000\001\000\000\000\000\000\000\000\001\000\000\000\000\000\000\000\003\000\000\000\000\000\000\000\001\000\000\000\000\000\000\000\001\000\000\000\000\000\000\000\001\000\000\000\000\000\000\000\002\000\000\000\000\000\000\000\003\000\000\000\000\000\000\000\002\000\000\000\000\000\000\000\001\000\000\000\000\000\000\000\001\000\000\000\000\000\000\000\003\000\000\000\000\000\000\000\001\000\000\000\000\000\000\000\001\000\000\000\000\000\000\000\001\000\000\000\000\000\000\000\001\000\000\000\000\000\000\000\002\000\000\000\000\000\000\000\001\000\000\000\000\000\000\000\001\000\000\000\000\000\000\000\001\000\000\000\000\000\000\000\001\000\000\000\000\000\000\000\003\000\000\000\000\000\000\000\001\000\000\000\000\000\000\000\002\000\000\000\000\000\000\000\001\000\000\000\000\000\000\000\003\000\000\000\000\000\000\000\003\000\000\000\000\000\000\000\001\000\000\000\000\000\000\000\001\000\000\000\000\000\000\000\001\000\000\000\000\000\000\000\001\000\000\000\000\000\000\000\001\000\000\000\000\000\000\000\001\000\000\000\000\000\000\000\003\000\000\000\000\000\000\000\002\000\000\000\000\000\000\000\001\000\000\000\000\000\000\000\001\000\000\000\000\000\000\000\003\000\000\000\000\000\000\000\001\000\000\000\000\000\000\000\001\000\000\000\000\000\000\000\001\000\000\000\000\000\000\000\003\000\000\000\000\000\000\000\001\000\000\000\000\000\000\000\002\000\000\000\000\000\000\000\003\000\000\000\000\000\000\000\001\000\000\000\000\000\000\000\001\000\000\000\000\000\000\000\001\000\000\000\000\000\000\000\003\000\000\000\000\000\000\000\001\000\000\000\000\000\000\000\001\000\000\000\000\000\000\000\001\000\000\000\000\000\000\000\001\000\000\000\000\000\000\000\001\000\000\000\000\000\000\000\001\000\000\000\000\000\000\000\003\000\000\000\000\000\000\000\003\000\000\000\000\000\000\000\002\000\000\000\000\000\000\000\003\000\000\000\000\000\000\000\003\000\000\000\000\000\000\000\001\000\000\000\000\000\000\000\001\000\000\000\000\000\000\000\001\000\000\000\000\000\000\000\001\000\000\000\000\000\000\000\002\000\000\000\000\000\000\000\001\000\000\000\000\000\000\000\002\000\000\000\000\000\000\000\002\000\000\000\000\000\000\000\001\000\000\000\000\000\000\000\001\000\000\000\000\000\000\000\001\000\000\000\000\000\000\000\002\000\000\000\000\000\000\000\002\000\000\000\000\000\000\000\001\000\000\000\000\000\000\000\001\000\000\000\000\000\000\000\003\000\000\000\000\000\000\000\001\000\000\000\000\000\000\000\001\000\000\000\000\000\000\000\001\000\000\000\000\000\000\000\001\000\000\000\000\000\000\000\001\000\000\000\000\000\000\000\001\000\000\000\000\000\000\000\002\000\000\000\000\000\000\000\002\000\000\000\000\000\000\000\001\000\000\000\000\000\000\000\001\000\000\000\000\000\000\000\002\000\000\000\000\000\000\000\001\000\000\000\000\000\000\000\003\000\000\000\000\000\000\000\003\000\000\000\000\000\000\000\003\000\000\000\000\000\000\000\001\000\000\000\000\000\000\000\001\000\000\000\000\000\000\000\001\000\000\000\000\000\000\000\003\000\000\000\000\000\000\000\002\000\000\000\000\000\000\000\001\000\000\000\000\000\000\000\001\000\000\000\000\000\000\000\003\000\000\000\000\000\000\000\001\000\000\000\000\000\000\000\003\000\000\000\000\000\000\000\001\000\000\000\000\000\000\000\002\000\000\000\000\000\000\000\001\000\000\000\000\000\000\000\001\000\000\000\000\000\000\000\002\000\000\000\000\000\000\000\002\000\000\000\000\000\000\000\002\000\000\000\000\000\000\000\001\000\000\000\000\000\000\000\002\000\000\000\000\000\000\000\002\000\000\000\000\000\000\000\001\000\000\000\000\000\000\000\001\000\000\000\000\000\000\000\001\000\000\000\000\000\000\000\001\000\000\000\000\000\000\000\001\000\000\000\000\000\000\000\001\000\000\000\000\000\000\000\001\000\000\000\000\000\000\000\001\000\000\000\000\000\000\000\001\000\000\000\000\000\000\000\001\000\000\000\000\000\000\000\001\000\000\000\000\000\000\000\002\000\000\000\000\000\000\000\003\000\000\000\000\000\000\000\003\000\000\000\000\000\000\000\001\000\000\000\000\000\000\000\003\000\000\000\000\000\000\000\001\000\000\000\000\000\000\000\001\000\000\000\000\000\000\000\001\000\000\000\000\000\000\000\001\000\000\000\000\000\000\000\002\000\000\000\000\000\000\000\001\000\000\000\000\000\000\000\001\000\000\000\000\000\000\000\001\000\000\000\000\000\000\000\003\000\000\000\000\000\000\000\002\000\000\000\000\000\000\000\001\000\000\000\000\000\000\000\002\000\000\000\000\000\000\000\001\000\000\000\000\000\000\000\002\000\000\000\000\000\000\000\001\000\000\000\000\000\000\000\001\000\000\000\000\000\000\000\002\000\000\000\000\000\000\000\001\000\000\000\000\000\000\000\001\000\000\000\000\000\000\000\003\000\000\000\000\000\000\000\001\000\000\000\000\000\000\000\001\000\000\000\000\000\000\000\001\000\000\000\000\000\000\000\001\000\000\000\000\000\000\000\001\000\000\000\000\000\000\000\003\000\000\000\000\000\000\000\002\000\000\000\000\000\000\000\001\000\000\000\000\000\000\000\001\000\000\000\000\000\000\000\001\000\000\000\000\000\000\000\001\000\000\000\000\000\000\000\001\000\000\000\000\000\000\000\003\000\000\000\000\000\000\000\003\000\000\000\000\000\000\000\003\000\000\000\000\000\000\000\003\000\000\000\000\000\000\000\001\000\000\000\000\000\000\000\001\000\000\000\000\000\000\000\001\000\000\000\000\000\000\000\003\000\000\000\000\000\000\000\003\000\000\000\000\000\000\000\001\000\000\000\000\000\000\000\001\000\000\000\000\000\000\000\001\000\000\000\000\000\000\000\002\000\000\000\000\000\000\000\003\000\000\000\000\000\000\000\001\000\000\000\000\000\000\000\001\000\000\000\000\000\000\000\001\000\000\000\000\000\000\000\001\000\000\000\000\000\000\000\001\000\000\000\000\000\000\000\001\000\000\000\000\000\000\000\003\000\000\000\000\000\000\000\001\000\000\000\000\000\000\000\001\000\000\000\000\000\000\000\002\000\000\000\000\000\000\000\003\000\000\000\000\000\000\000\001\000\000\000\000\000\000\000\003\000\000\000\000\000\000\000\001\000\000\000\000\000\000\000\002\000\000\000\000\000\000\000\001\000\000\000\000\000\000\000\001\000\000\000\000\000\000\000\001\000\000\000\000\000\000\000\001\000\000\000\000\000\000\000\002\000\000\000\000\000\000\000\001\000\000\000\000\000\000\000\001\000\000\000\000\000\000\000\002\000\000\000\000\000\000\000\001\000\000\000\000\000\000\000\001\000\000\000\000\000\000\000\002\000\000\000\000\000\000\000\001\000\000\000\000\000\000\000\002\000\000\000\000\000\000\000\003\000\000\000\000\000\000\000\001\000\000\000\000\000\000\000\001\000\000\000\000\000\000\000\002\000\000\000\000\000\000\000\003\000\000\000\000\000\000\000\003\000\000\000\000\000\000\000\001\000\000\000\000\000\000\000\002\000\000\000\000\000\000\000\001\000\000\000\000\000\000\000\003\000\000\000\000\000\000\000\003\000\000\000\000\000\000\000\001\000\000\000\000\000\000\000\001\000\000\000\000\000\000\000\002\000\000\000\000\000\000\000\001\000\000\000\000\000\000\000\001\000\000\000\000\000\000\000\003\000\000\000\000\000\000\000\001\000\000\000\000\000\000\000\002\000\000\000\000\000\000\000\002\000\000\000\000\000\000\000\001\000\000\000\000\000\000\000\003\000\000\000\000\000\000\000\001\000\000\000\000\000\000\000\003\000\000\000\000\000\000\000\001\000\000\000\000\000\000\000\001\000\000\000\000\000\000\000\001\000\000\000\000\000\000\000\003\000\000\000\000\000\000\000\001\000\000\000\000\000\000\000\001\000\000\000\000\000\000\000\001\000\000\000\000\000\000\000\001\000\000\000\000\000\000\000"
      }
    }
  }
}
node {
  name: "normalize_element/component_6"
  op: "Const"
  device: "/device:CPU:0"
  attr {
    key: "_output_shapes"
    value {
      list {
        shape {
          dim {
            size: 313
          }
        }
      }
    }
  }
  attr {
    key: "dtype"
    value {
      type: DT_DOUBLE
    }
  }
  attr {
    key: "value"
    value {
      tensor {
        dtype: DT_DOUBLE
        tensor_shape {
          dim {
            size: 313
          }
        }
        tensor_content: "\204\000L\252\270\304\341\277\024C\365Z\302\327\350?:\202%s\323\374\353\277\247\030Y\347\303\303\361\277\"\007\2373\307\024\355\277\365\366\341\001\0176\360?9\251\036}\311\034\341?\374\261\240\347|\363\364\277\027\371\315\257,\366\325\2777\206\275\320\317\020\363\277\315|\365\343\255\246\256?\306\230R\014\305\017\356\277\376\324\001\224v\377\342?\374\010\370\207\361%\371?XP\256(\337\311\372?Q\313\221\025\220\304\002@\304\367V\224\366\262\323\277\034\013W\341\035!\371?{<\274z\226\021\311\277t\206\311|Ii\300?\t\177\330\326\256_\372?\347\200\256W\235\271\351\277\271}\356\017j\341\335\277\367y\261@\313\213\223\277{EJ\221\303@\352\277O\177\336\333\260I\356\277\256\035\314\314\270\'\357\277y`\364\324J\316\275?\177\320\272\010\340g\362\277;4L\301^}\366?\251U\255y\344\244\361?\307\032\270@\360\276\361\277e\216\223!\216\374\315?\177\320\272\010\340g\362\277u\244niO\334\344\277\227\354L\350\347(\356?\027\371\315\257,\366\325\277[\301;\342\001\230\323?\253x\273\312)n\372?\366*\270\245/d\341\277\215\241\007\202\3220\322\277u\010\026O\375W\357\277u\010\026O\375W\357\277\366\341\364\374E\370\312?F\273\004\213$\230\362\277\\f\\\014\276\315\352?\312\026 \343\363\252\352\277\364t\337P\305E\324?\305\262\250u\315\243\367?\360\323=\"\216c\337\277\234-\246\334\233\352\345\277\342\305\337I\002\200\362\277\000\224h\377\rM\341?\255\250l\274\\\303\356?\263\227t\361\371\351\356?$g\307\035\360<\305?\030\264\037\221\003\347\371?\247\013\266F\3267\346\277\271\2274QE\371\344\277Q\210L\242\203\200\352?\242Y\022\314\206n\370?}\004\261\374Z\216\350\277Gzk\366\273\345\360\277\035\264\357\030|r\342\277i\271\036\342\010\302\360?\325\304n3\316&\324\277\357\327b\324{<\314\277\240j\352F\217O\363\277t/\017Y\363w\344?\tXBP\232\376\374?B=7\264\365\374\365\277\355|Y-(l\365\277aY\211\363H\315\347\277Q\242?\210\252U\374?RTf\3265\326\326?e\205\005\013a\315\354?\316F\301\254\371\203\354\277<\363_\321A\210\357\277\212\325`\371.\026\360\277\352\245\313\nh\323\000@)\250\315\266\357\273\367?\212\353.-h\022\345?G\3024\016\276\322\242\277\324\347\357/\"+\367?5B\350\356u\006\213\277\222\332&:\330\274\362?\272\216\246:\030\312\303\277E\374\215\367_\316\341\277+\313.c\351\307\325?C\356\266\314MA\261\277\205,\350\021+\275\333?\376\356\241\036\351\221\357\277X\225\371\303&\032\317\277\312W\004?\372a\000@\362\301!\3653\005\275\277\257\370D\250)\027\000@&\222\017\253\343;\365\277\363Z\231\017\352-\355?p@\367\373(\325\361?\353\260O!\243\222\353\277\376\036\260p\035\367N?e\327V\312wh\344\277\242\030\211_K8\351?\"\007\2373\307\024\355\277\277\206<\206\342\037\345\277^\350^\275\007\276\366\277\277\010O_Y\214\323\277Gm\310U\316Y\345\277<\363_\321A\210\357\277\326\246V\233\271x\365?\026\365\270%l\231\373?\023{\000\331\375Z\331\277\312\214\211\254d\n\262?Gzk\366\273\345\360\277\272\244\327\3612\205\360\277\025s\266t\"\251\337?\305\264d|\236\261\000@n\250\323\273\361\245\353\277\323\220\230\217\255\370\362\277\222{2\332\323\225\337?z\307\\j:\255\330\277\242j\332\036b\323\340\277y\206\343%,\363\353\2775B\350\356u\006\213\277\r\246N\ri\310\362\277ZCN\273x\004\342?\343)\332\212d>\342?\273\021\375\305\340\263\331?\372\3629|\345\245\366\277\216\\Yc\251!\366?\266\010\237\';\371\377?\372ZYo5=\343\277\203\273\255\263\2741\330?\361Q~\244\3139\366?\246;\207\210c\205\377?\344\204F\265\231\315\360\277\001t\257\240\336\343\256\277r\276\324\372\204\354\340?\314\207ZAb6\356\277\245\316a\264\265V\326\277Gm\310U\316Y\345\277u\244niO\334\344\277g\372\267vqt\362?\356b\003\304\037\330\333\277\177\320\272\010\340g\362\277\361\362\354\307\250\321\312?{EJ\221\303@\352\277\367y\261@\313\213\223\277\276y\374h\326R\361?\2251\013/>\264\354\277S\257\322\000ke\365?\327\001\303\305\356\007\344\2777\206\275\320\317\020\363\277\226\365\332\376\024X\317?t\373\3251\361\212\373?\000\273\253*nk\371\277\367\330f\346\030\311\351?07\340\014\276\004\300\277\t1\254\311\205\235\377?T>%\367\355\236\327\277\235\322\306\006X \335\277\266\313\215\310\241\336\362?\022:\207\224\357\240\354\277-8D\017jz\314?\322O\037K\237>\366?LO\220m_\263\361?\020\326\357\326n\241\364\277\367\216\262\346\221\"\361?of\366t7v\262\277g\007\010\274\252\275\370\277c%\223\377\315\246\361\277\377\313s}I\320\321\277W\006\nQ\205\237\364?O\027\022D\025\365\346?rZ\332\271\".\361\277\376p\007S\024A\363\277\272k\322\342\017\203\273\277\n\332D\001\344\356\350\277\251|\360\244D\303\351\277\003\336\251S\206\270\357\277\310\331\036\254\207\014\360\277\333\343\212\335\177a\360?y\206\343%,\363\353\277x\335\235I\202\344\327?\t\315\004\344\327!\365?\n\016+\3151\231\334\277\030\301\3021\361r\345?5\223\035>6\326\353\277\013\347\347\241\321z\364\277\007\220\260Q\267@\365\277\224_\337v]Ct\277\306\230R\014\305\017\356\277U\006\032y\262\033\347?&\271R\326CZ\335\277`\221\224q\204P\310\277!\374\032\035\214U\002@\272\373.\222\247\267\364?y\272\311\361y\235\337\277e\205\005\013a\315\354?\361\237WV@\271\353\277aLAB&\302\002@\234:I}\211v\361\277\316\241\220Z\020\322\362\277M\\\320\212k\200\345\277\033\333\225\307\275O\362\277\021a\200\236\345\300\341?\310\331\036\254\207\014\360\277\0065D\'\202\261\346?\310u$k%N\320\277\215$^\r\233\032\310?\227Tl\3337\300\372?\330\246\343\357\252=\333\277{\367\035\204\232~\357\277Z]\356E\353\226\356\277\224\210\305R\224\245\330?\370\317\330\317\353\231\330\277\021\n\306z\217\317\325\277\325O\377\372DF\361\277\005\216\325\221_\003\241\277\016\257\314\373h{\321?\347{\274\027={\225?H\321\302\2260\030\365?\227\347\343\203\250\322\311\277T\360KEy\037\362\277@q-\250p#\354\277\026P\210\323\202\347\341?\221\016\r\006&g\366\277/I\3749\030c\322?\215\241\007\202\3220\322\277r\276\324\372\204\354\340?\t\033\336\225L\241\352\277v\356u\304\212\305\342?\226\360q\232\325\001\353\277u\010\026O\375W\357\277\307`G\216\211\214\335?\246\327\337\242\265\t\365?\336G\022s\323\344\365\277\367y\261@\313\213\223\277\356!\335\332\305`\364?\r\220\035VN\r\306\277\262\366hQ\376\020\362\277!H8\310/\307\356\277\n\332D\001\344\356\350\277v\010i\252\261\232\364?,\261\330\371\3403\374?\355\361\310e\261L\330\277\217\304h.\314<\360\277\007\\w*\265S\354\277@\325\'\351\322\341\373?\347R;\251\243`\241?\030\361\203KQD\334?\240j\352F\217O\363\277GS\202\024\363A\336\277j\372D\313b9\330\277\024\017\2743\300\352\377?Z\260\203\267S\257\315?[%\343\307\257\023\336?Q\326x\257\254B\345?\331a5\321\201.\377?B=7\264\365\374\365\277Ji\223{\263\004\366?\252\301\216\233@V\303\277\205\310@,}A\321?])\350)C\364\345\277\241P\224\335\206\273\331\277j\254k\031\356\271\362\277\024]\350@\351\254\372?\247Y\342S\377\371\340\277\322\003\257DG\212\004@\335\022\225\231\177z\265\277\322\\\302\353\214\312\341?K\321O\353!\335\332\277\277\352\343k\220\233\357\277\202\'\237\375E_\334\277<A\214\336jJ\352\2773\244\365\270>\267\326\277\021-Gw\343\323\370?\343 Lt7\017\321\277\355|Y-(l\365\277\223r\244\303\246f\356\277\024\371@[;1\360?&U\253\360\225\336\322\2779\r\306bw\230\353?\006\340\327n\2228\251?c\030\360^\340\032\346\277y\272\311\361y\235\337\277{EJ\221\303@\352\277\350\344\250\230\377w\371?\n\332D\001\344\356\350\277\210\224\347\264 \\\363?/&(\342\017\034\332\277\215\241\007\202\3220\322\277\223r\244\303\246f\356\277K\2637S\r/\374?a\215\302\032K\272\360\277(Z\241\251\306\371\374?\362\245\017\221\327Yr?G\3024\016\276\322\242\277\216i\374\003\227\255\341?\033\333\225\307\275O\362\277\224\001J\025\336\342\325\277\324K\352p\204\351\326?\177\320\272\010\340g\362\277F`\2108\302\214\361?F\224n\004\0207\365\277<\363_\321A\210\357\277\370\317\330\317\353\231\330\277\313`\'>/\224\350?\223r\244\303\246f\356\277\274\036\220>\241\303\322?\024\253\024N\022o\365?\221\\9\023O)\361\277\201\277\342\215\327\206\367?"
      }
    }
  }
}
node {
  name: "normalize_element/component_7"
  op: "Const"
  device: "/device:CPU:0"
  attr {
    key: "_output_shapes"
    value {
      list {
        shape {
          dim {
            size: 313
          }
        }
      }
    }
  }
  attr {
    key: "dtype"
    value {
      type: DT_DOUBLE
    }
  }
  attr {
    key: "value"
    value {
      tensor {
        dtype: DT_DOUBLE
        tensor_shape {
          dim {
            size: 313
          }
        }
        tensor_content: "333333;@\232\231\231\231\231\2312@\000\000\000\000\000\000=@\232\231\231\231\231\231B@\000\000\000\000\000\200@@\000\000\000\000\000\000*@ffffff6@\315\314\314\314\314LF@ffffff;@\000\000\000\000\000\000?@\000\000\000\000\000\0008@\000\000\000\000\000\000<@\232\231\231\231\231\2311@\000\000\000\000\000\000.@\000\000\000\000\000\000&@\000\000\000\000\000\000(@\315\314\314\314\314\314:@\000\000\000\000\000\000*@\232\231\231\231\231\2315@\315\314\314\314\314\3144@fffff\3460@\000\000\000\000\000\0004@\000\000\000\000\000\200:@\000\000\000\000\000\0002@\000\000\000\000\000\000:@\000\000\000\000\000\0008@\000\000\000\000\000\200=@3333334@ffffff@@\000\000\000\000\000\000,@\000\000\000\000\000\0000@\315\314\314\314\314\314?@33333\263>@\315\314\314\314\314\014A@\000\000\000\000\000\0004@\000\000\000\000\000\000.@ffffff<@\000\000\000\000\000\0004@\000\000\000\000\000\000*@\000\000\000\000\000\200A@\000\000\000\000\000\000?@\000\000\000\000\000\000F@\000\000\000\000\000\000;@\000\000\000\000\000\0001@\315\314\314\314\314\014A@\000\000\000\000\000\000,@\000\000\000\000\000\0007@\232\231\231\231\231\031<@\000\000\000\000\000\000-@\000\000\000\000\000\0008@fffff\346=@\000\000\000\000\000\000B@fffff\3467@\000\000\000\000\000\000.@\000\000\000\000\000\0000@\000\000\000\000\000\0004@\000\000\000\000\000\0000@\000\000\000\000\000\0008@fffff\3467@\000\000\000\000\000\000&@\000\000\000\000\000\000,@\000\000\000\000\000\0003@\000\000\000\000\000\000>@\000\000\000\000\000\0005@\000\000\000\000\000\000.@\000\000\000\000\000\0007@\000\000\000\000\000\0002@\000\000\000\000\000\000=@\000\000\000\000\000\0002@\000\000\000\000\000\000(@\000\000\000\000\000\200@@\000\000\000\000\000\200=@\000\000\000\000\000\0003@\000\000\000\000\000\000,@\000\000\000\000\000\0003@\232\231\231\231\231\231:@\000\000\000\000\000\000B@\000\000\000\000\000\000C@\000\000\000\000\000\0008@\000\000\000\000\000\000*@\000\000\000\000\000\0000@\000\000\000\000\000\2001@\000\000\000\000\000\0003@\000\000\000\000\000\0000@\000\000\000\000\000\000;@\000\000\000\000\000\2000@\315\314\314\314\314L4@\000\000\000\000\000\0008@\000\000\000\000\000\000>@\000\000\000\000\000\0007@\000\000\000\000\000\0001@\000\000\000\000\000\0002@\000\000\000\000\000\2009@\000\000\000\000\000\000*@\000\000\000\000\000\0008@\000\000\000\000\000\0000@\000\000\000\000\000\000:@ffffff3@\000\000\000\000\000\0001@fffff\346>@\000\000\000\000\000\0002@33333\2637@\000\000\000\000\000\0003@\000\000\000\000\000\200>@\000\000\000\000\000\0005@\315\314\314\314\314\214C@\000\000\000\000\000\0008@\000\000\000\000\000\0006@\000\000\000\000\000\000B@\000\000\000\000\000\000*@\000\000\000\000\000\000,@\000\000\000\000\000\000<@\000\000\000\000\000\0002@fffff&@@fffff&F@\232\231\231\231\231\0313@\000\000\000\000\000\000\"@\000\000\000\000\000\0009@\000\000\000\000\000\000:@\232\231\231\231\231\2314@\000\000\000\000\000\0003@\232\231\231\231\231\0315@\000\000\000\000\000\0007@333333B@\000\000\000\000\000\000@@\000\000\000\000\000\0000@33333\2631@\000\000\000\000\000\0003@\315\314\314\314\314\214A@\000\000\000\000\000\000.@\000\000\000\000\000\000,@\000\000\000\000\000\000:@\000\000\000\000\000\0003@\000\000\000\000\000\000/@\000\000\000\000\000\000&@33333\263C@\232\231\231\231\231Y@@3333330@\000\000\000\000\000\000B@\000\000\000\000\000\000@@\000\000\000\000\000\000A@\000\000\000\000\000\0006@\000\000\000\000\000\000*@\000\000\000\000\000\0007@\315\314\314\314\314\214E@\000\000\000\000\000\0002@\000\000\000\000\000\000:@\000\000\000\000\000\0006@\000\000\000\000\000\2001@\232\231\231\231\231\031A@\000\000\000\000\000\000,@\000\000\000\000\000\0008@\000\000\000\000\000\000:@\000\000\000\000\000\000*@\000\000\000\000\000\000*@\000\000\000\000\000\200A@\000\000\000\000\000\2002@\315\314\314\314\314\3147@\000\000\000\000\000\000,@\000\000\000\000\000\0005@\000\000\000\000\000\000?@\000\000\000\000\000\000/@\000\000\000\000\000\000;@\000\000\000\000\000\0004@\000\000\000\000\000\0000@\000\000\000\000\000\0007@\000\000\000\000\000\000=@\000\000\000\000\000\000*@ffffff9@\000\000\000\000\000\000?@\000\000\000\000\000\200B@\000\000\000\000\000\2007@\000\000\000\000\000\000*@3333334@\232\231\231\231\231\331B@\000\000\000\000\000\000=@ffffff:@\000\000\000\000\000\2009@\000\000\000\000\000\0008@\315\314\314\314\314\014@@ffffffD@3333332@\000\000\000\000\000\0009@\000\000\000\000\000\0000@\000\000\000\000\000\000.@\000\000\000\000\000\0004@ffffff9@\000\000\000\000\000\0009@\000\000\000\000\000\200C@\000\000\000\000\000\000;@\000\000\000\000\000\0007@\000\000\000\000\000\2008@\000\000\000\000\000\0002@\000\000\000\000\000\0009@fffff\346;@\000\000\000\000\000\000(@\000\000\000\000\000\0001@\000\000\000\000\000\0009@\232\231\231\231\231\2311@\000\000\000\000\000\0005@\000\000\000\000\000\000(@\000\000\000\000\000\000=@\000\000\000\000\000\000:@\000\000\000\000\000\000:@\000\000\000\000\000\000@@\000\000\000\000\000\000.@\315\314\314\314\314LG@\000\000\000\000\000\000.@3333337@\000\000\000\000\000\0002@\000\000\000\000\000\2000@\000\000\000\000\000\2005@\000\000\000\000\000\0009@\000\000\000\000\000@A@\000\000\000\000\000\0002@\232\231\231\231\231\231?@\000\000\000\000\000\0009@333333A@\000\000\000\000\000\0002@\000\000\000\000\000\2001@\000\000\000\000\000\0005@\000\000\000\000\000\2001@\000\000\000\000\000\000;@\000\000\000\000\000\000?@\232\231\231\231\231YA@\000\000\000\000\000\0002@\000\000\000\000\000\000?@\232\231\231\231\231\0312@\232\231\231\231\231\0319@\232\231\231\231\231\0312@\000\000\000\000\000\000:@\000\000\000\000\000\0002@\000\000\000\000\000\000A@fffff\246B@\000\000\000\000\000\0006@\000\000\000\000\000\000,@\315\314\314\314\314\014B@\000\000\000\000\000\0009@\000\000\000\000\000\000,@\000\000\000\000\000\0006@\000\000\000\000\000\000@@fffff\346@@333333;@\000\000\000\000\000\000/@\000\000\000\000\000\000,@\000\000\000\000\000\0007@\000\000\000\000\000\000;@\232\231\231\231\231\331@@\000\000\000\000\000\000.@\315\314\314\314\314\3143@\000\000\000\000\000\000.@\000\000\000\000\000\000=@\000\000\000\000\000\200;@\000\000\000\000\000\000;@\000\000\000\000\000\000*@\000\000\000\000\000\000.@\232\231\231\231\231\2314@\000\000\000\000\000\2002@\000\000\000\000\000\000$@\000\000\000\000\000\200@@\000\000\000\000\000\000,@\000\000\000\000\000\0006@333333;@\000\000\000\000\000\0006@\315\314\314\314\314\3149@\315\314\314\314\314\014C@\000\000\000\000\000\000$@\000\000\000\000\000\0006@\000\000\000\000\000\000*@\315\314\314\314\314L6@\000\000\000\000\000\0000@\000\000\000\000\000\000<@\000\000\000\000\000\000<@\000\000\000\000\000\000:@\000\000\000\000\000\000<@\000\000\000\000\000\0008@\000\000\000\000\000\0000@\000\000\000\000\000\000;@\000\000\000\000\000\000B@\000\000\000\000\000\000>@\000\000\000\000\000\2000@\315\314\314\314\314\314=@\000\000\000\000\000\000.@\315\314\314\314\314L8@\000\000\000\000\000\0009@\315\314\314\314\314L?@\232\231\231\231\231\031@@\000\000\000\000\000\000,@\000\000\000\000\000\000:@\000\000\000\000\000\000*@33333s@@\000\000\000\000\000\2005@\000\000\000\000\000\000>@\000\000\000\000\000\000(@\000\000\000\000\000\000>@\000\000\000\000\000\0000@3333334@3333338@\000\000\000\000\000\2004@\000\000\000\000\000\200?@\000\000\000\000\000\0009@3333334@\000\000\000\000\000\000>@\000\000\000\000\000\000.@\000\000\000\000\000\000@@\000\000\000\000\000\000<@\232\231\231\231\231\231:@\000\000\000\000\000\0002@\000\000\000\000\000\000<@ffffff3@\000\000\000\000\000\000*@\000\000\000\000\000\200>@\000\000\000\000\000\000,@"
      }
    }
  }
}
node {
  name: "TensorSliceDataset"
  op: "TensorSliceDataset"
  input: "normalize_element/component_0"
  input: "normalize_element/component_1"
  input: "normalize_element/component_2"
  input: "normalize_element/component_3"
  input: "normalize_element/component_4"
  input: "normalize_element/component_5"
  input: "normalize_element/component_6"
  input: "normalize_element/component_7"
  device: "/device:CPU:0"
  attr {
    key: "Toutput_types"
    value {
      list {
        type: DT_DOUBLE
        type: DT_DOUBLE
        type: DT_DOUBLE
        type: DT_DOUBLE
        type: DT_INT64
        type: DT_INT64
        type: DT_DOUBLE
        type: DT_DOUBLE
      }
    }
  }
  attr {
    key: "_output_shapes"
    value {
      list {
        shape {
        }
      }
    }
  }
  attr {
    key: "output_shapes"
    value {
      list {
        shape {
        }
        shape {
        }
        shape {
        }
        shape {
        }
        shape {
        }
        shape {
        }
        shape {
        }
        shape {
        }
      }
    }
  }
}
node {
  name: "buffer_size"
  op: "Const"
  device: "/device:CPU:0"
  attr {
    key: "_output_shapes"
    value {
      list {
        shape {
        }
      }
    }
  }
  attr {
    key: "dtype"
    value {
      type: DT_INT64
    }
  }
  attr {
    key: "value"
    value {
      tensor {
        dtype: DT_INT64
        tensor_shape {
        }
        int64_val: 1000
      }
    }
  }
}
node {
  name: "seed"
  op: "Const"
  device: "/device:CPU:0"
  attr {
    key: "_output_shapes"
    value {
      list {
        shape {
        }
      }
    }
  }
  attr {
    key: "dtype"
    value {
      type: DT_INT64
    }
  }
  attr {
    key: "value"
    value {
      tensor {
        dtype: DT_INT64
        tensor_shape {
        }
        int64_val: 0
      }
    }
  }
}
node {
  name: "seed2"
  op: "Const"
  device: "/device:CPU:0"
  attr {
    key: "_output_shapes"
    value {
      list {
        shape {
        }
      }
    }
  }
  attr {
    key: "dtype"
    value {
      type: DT_INT64
    }
  }
  attr {
    key: "value"
    value {
      tensor {
        dtype: DT_INT64
        tensor_shape {
        }
        int64_val: 0
      }
    }
  }
}
node {
  name: "ShuffleDataset"
  op: "ShuffleDataset"
  input: "TensorSliceDataset"
  input: "buffer_size"
  input: "seed"
  input: "seed2"
  device: "/device:CPU:0"
  attr {
    key: "_output_shapes"
    value {
      list {
        shape {
        }
      }
    }
  }
  attr {
    key: "output_shapes"
    value {
      list {
        shape {
        }
        shape {
        }
        shape {
        }
        shape {
        }
        shape {
        }
        shape {
        }
        shape {
        }
        shape {
        }
      }
    }
  }
  attr {
    key: "output_types"
    value {
      list {
        type: DT_DOUBLE
        type: DT_DOUBLE
        type: DT_DOUBLE
        type: DT_DOUBLE
        type: DT_INT64
        type: DT_INT64
        type: DT_DOUBLE
        type: DT_DOUBLE
      }
    }
  }
  attr {
    key: "reshuffle_each_iteration"
    value {
      b: true
    }
  }
}
node {
  name: "count"
  op: "Const"
  device: "/device:CPU:0"
  attr {
    key: "_output_shapes"
    value {
      list {
        shape {
        }
      }
    }
  }
  attr {
    key: "dtype"
    value {
      type: DT_INT64
    }
  }
  attr {
    key: "value"
    value {
      tensor {
        dtype: DT_INT64
        tensor_shape {
        }
        int64_val: -1
      }
    }
  }
}
node {
  name: "RepeatDataset"
  op: "RepeatDataset"
  input: "ShuffleDataset"
  input: "count"
  device: "/device:CPU:0"
  attr {
    key: "_output_shapes"
    value {
      list {
        shape {
        }
      }
    }
  }
  attr {
    key: "output_shapes"
    value {
      list {
        shape {
        }
        shape {
        }
        shape {
        }
        shape {
        }
        shape {
        }
        shape {
        }
        shape {
        }
        shape {
        }
      }
    }
  }
  attr {
    key: "output_types"
    value {
      list {
        type: DT_DOUBLE
        type: DT_DOUBLE
        type: DT_DOUBLE
        type: DT_DOUBLE
        type: DT_INT64
        type: DT_INT64
        type: DT_DOUBLE
        type: DT_DOUBLE
      }
    }
  }
}
node {
  name: "batch_size"
  op: "Const"
  device: "/device:CPU:0"
  attr {
    key: "_output_shapes"
    value {
      list {
        shape {
        }
      }
    }
  }
  attr {
    key: "dtype"
    value {
      type: DT_INT64
    }
  }
  attr {
    key: "value"
    value {
      tensor {
        dtype: DT_INT64
        tensor_shape {
        }
        int64_val: 8
      }
    }
  }
}
node {
  name: "drop_remainder"
  op: "Const"
  device: "/device:CPU:0"
  attr {
    key: "_output_shapes"
    value {
      list {
        shape {
        }
      }
    }
  }
  attr {
    key: "dtype"
    value {
      type: DT_BOOL
    }
  }
  attr {
    key: "value"
    value {
      tensor {
        dtype: DT_BOOL
        tensor_shape {
        }
        bool_val: false
      }
    }
  }
}
node {
  name: "BatchDatasetV2"
  op: "BatchDatasetV2"
  input: "RepeatDataset"
  input: "batch_size"
  input: "drop_remainder"
  device: "/device:CPU:0"
  attr {
    key: "_output_shapes"
    value {
      list {
        shape {
        }
      }
    }
  }
  attr {
    key: "output_shapes"
    value {
      list {
        shape {
          dim {
            size: -1
          }
        }
        shape {
          dim {
            size: -1
          }
        }
        shape {
          dim {
            size: -1
          }
        }
        shape {
          dim {
            size: -1
          }
        }
        shape {
          dim {
            size: -1
          }
        }
        shape {
          dim {
            size: -1
          }
        }
        shape {
          dim {
            size: -1
          }
        }
        shape {
          dim {
            size: -1
          }
        }
      }
    }
  }
  attr {
    key: "output_types"
    value {
      list {
        type: DT_DOUBLE
        type: DT_DOUBLE
        type: DT_DOUBLE
        type: DT_DOUBLE
        type: DT_INT64
        type: DT_INT64
        type: DT_DOUBLE
        type: DT_DOUBLE
      }
    }
  }
  attr {
    key: "parallel_copy"
    value {
      b: false
    }
  }
}
node {
  name: "ModelDataset"
  op: "ModelDataset"
  input: "BatchDatasetV2"
  attr {
    key: "_output_shapes"
    value {
      list {
        shape {
        }
      }
    }
  }
  attr {
    key: "algorithm"
    value {
      i: 0
    }
  }
  attr {
    key: "cpu_budget"
    value {
      i: 0
    }
  }
  attr {
    key: "output_shapes"
    value {
      list {
        shape {
          dim {
            size: -1
          }
        }
        shape {
          dim {
            size: -1
          }
        }
        shape {
          dim {
            size: -1
          }
        }
        shape {
          dim {
            size: -1
          }
        }
        shape {
          dim {
            size: -1
          }
        }
        shape {
          dim {
            size: -1
          }
        }
        shape {
          dim {
            size: -1
          }
        }
        shape {
          dim {
            size: -1
          }
        }
      }
    }
  }
  attr {
    key: "output_types"
    value {
      list {
        type: DT_DOUBLE
        type: DT_DOUBLE
        type: DT_DOUBLE
        type: DT_DOUBLE
        type: DT_INT64
        type: DT_INT64
        type: DT_DOUBLE
        type: DT_DOUBLE
      }
    }
  }
  attr {
    key: "ram_budget"
    value {
      i: 0
    }
  }
}
node {
  name: "optimizations_enabled"
  op: "Const"
  attr {
    key: "_output_shapes"
    value {
      list {
        shape {
          dim {
          }
        }
      }
    }
  }
  attr {
    key: "dtype"
    value {
      type: DT_STRING
    }
  }
  attr {
    key: "value"
    value {
      tensor {
        dtype: DT_STRING
        tensor_shape {
          dim {
          }
        }
      }
    }
  }
}
node {
  name: "optimizations_disabled"
  op: "Const"
  attr {
    key: "_output_shapes"
    value {
      list {
        shape {
          dim {
          }
        }
      }
    }
  }
  attr {
    key: "dtype"
    value {
      type: DT_STRING
    }
  }
  attr {
    key: "value"
    value {
      tensor {
        dtype: DT_STRING
        tensor_shape {
          dim {
          }
        }
      }
    }
  }
}
node {
  name: "optimizations_default"
  op: "Const"
  attr {
    key: "_output_shapes"
    value {
      list {
        shape {
          dim {
            size: 4
          }
        }
      }
    }
  }
  attr {
    key: "dtype"
    value {
      type: DT_STRING
    }
  }
  attr {
    key: "value"
    value {
      tensor {
        dtype: DT_STRING
        tensor_shape {
          dim {
            size: 4
          }
        }
        string_val: "map_and_batch_fusion"
        string_val: "map_parallelization"
        string_val: "noop_elimination"
        string_val: "shuffle_and_repeat_fusion"
      }
    }
  }
}
node {
  name: "OptimizeDatasetV2"
  op: "OptimizeDatasetV2"
  input: "ModelDataset"
  input: "optimizations_enabled"
  input: "optimizations_disabled"
  input: "optimizations_default"
  attr {
    key: "_output_shapes"
    value {
      list {
        shape {
        }
      }
    }
  }
  attr {
    key: "optimization_configs"
    value {
      list {
        s: "autotune_buffer_sizes:autotune:true"
        s: "batch_parallelization:autotune:true"
        s: "disable_prefetch_legacy_autotune:autotune:true"
        s: "enable_gradient_descent:autotune:true"
        s: "map_parallelization:autotune:true"
      }
    }
  }
  attr {
    key: "output_shapes"
    value {
      list {
        shape {
          dim {
            size: -1
          }
        }
        shape {
          dim {
            size: -1
          }
        }
        shape {
          dim {
            size: -1
          }
        }
        shape {
          dim {
            size: -1
          }
        }
        shape {
          dim {
            size: -1
          }
        }
        shape {
          dim {
            size: -1
          }
        }
        shape {
          dim {
            size: -1
          }
        }
        shape {
          dim {
            size: -1
          }
        }
      }
    }
  }
  attr {
    key: "output_types"
    value {
      list {
        type: DT_DOUBLE
        type: DT_DOUBLE
        type: DT_DOUBLE
        type: DT_DOUBLE
        type: DT_INT64
        type: DT_INT64
        type: DT_DOUBLE
        type: DT_DOUBLE
      }
    }
  }
}
node {
  name: "IteratorV2"
  op: "IteratorV2"
  device: "/device:CPU:0"
  attr {
    key: "_class"
    value {
      list {
        s: "loc:@BatchDatasetV2"
      }
    }
  }
  attr {
    key: "_output_shapes"
    value {
      list {
        shape {
        }
      }
    }
  }
  attr {
    key: "container"
    value {
      s: ""
    }
  }
  attr {
    key: "output_shapes"
    value {
      list {
        shape {
          dim {
            size: -1
          }
        }
        shape {
          dim {
            size: -1
          }
        }
        shape {
          dim {
            size: -1
          }
        }
        shape {
          dim {
            size: -1
          }
        }
        shape {
          dim {
            size: -1
          }
        }
        shape {
          dim {
            size: -1
          }
        }
        shape {
          dim {
            size: -1
          }
        }
        shape {
          dim {
            size: -1
          }
        }
      }
    }
  }
  attr {
    key: "output_types"
    value {
      list {
        type: DT_DOUBLE
        type: DT_DOUBLE
        type: DT_DOUBLE
        type: DT_DOUBLE
        type: DT_INT64
        type: DT_INT64
        type: DT_DOUBLE
        type: DT_DOUBLE
      }
    }
  }
  attr {
    key: "shared_name"
    value {
      s: ""
    }
  }
}
node {
  name: "MakeIterator"
  op: "MakeIterator"
  input: "OptimizeDatasetV2"
  input: "IteratorV2"
  device: "/device:CPU:0"
  attr {
    key: "_class"
    value {
      list {
        s: "loc:@BatchDatasetV2"
      }
    }
  }
}
node {
  name: "IteratorToStringHandle"
  op: "IteratorToStringHandle"
  input: "IteratorV2"
  device: "/device:CPU:0"
  attr {
    key: "_class"
    value {
      list {
        s: "loc:@BatchDatasetV2"
      }
    }
  }
  attr {
    key: "_output_shapes"
    value {
      list {
        shape {
        }
      }
    }
  }
}
node {
  name: "IteratorGetNext"
  op: "IteratorGetNext"
  input: "IteratorV2"
  device: "/device:CPU:0"
  attr {
    key: "_class"
    value {
      list {
        s: "loc:@BatchDatasetV2"
      }
    }
  }
  attr {
    key: "_output_shapes"
    value {
      list {
        shape {
          dim {
            size: -1
          }
        }
        shape {
          dim {
            size: -1
          }
        }
        shape {
          dim {
            size: -1
          }
        }
        shape {
          dim {
            size: -1
          }
        }
        shape {
          dim {
            size: -1
          }
        }
        shape {
          dim {
            size: -1
          }
        }
        shape {
          dim {
            size: -1
          }
        }
        shape {
          dim {
            size: -1
          }
        }
      }
    }
  }
  attr {
    key: "output_shapes"
    value {
      list {
        shape {
          dim {
            size: -1
          }
        }
        shape {
          dim {
            size: -1
          }
        }
        shape {
          dim {
            size: -1
          }
        }
        shape {
          dim {
            size: -1
          }
        }
        shape {
          dim {
            size: -1
          }
        }
        shape {
          dim {
            size: -1
          }
        }
        shape {
          dim {
            size: -1
          }
        }
        shape {
          dim {
            size: -1
          }
        }
      }
    }
  }
  attr {
    key: "output_types"
    value {
      list {
        type: DT_DOUBLE
        type: DT_DOUBLE
        type: DT_DOUBLE
        type: DT_DOUBLE
        type: DT_INT64
        type: DT_INT64
        type: DT_DOUBLE
        type: DT_DOUBLE
      }
    }
  }
}
node {
  name: "dnn/Cast"
  op: "Cast"
  input: "IteratorGetNext"
  attr {
    key: "DstT"
    value {
      type: DT_FLOAT
    }
  }
  attr {
    key: "SrcT"
    value {
      type: DT_DOUBLE
    }
  }
  attr {
    key: "Truncate"
    value {
      b: false
    }
  }
  attr {
    key: "_output_shapes"
    value {
      list {
        shape {
          dim {
            size: -1
          }
        }
      }
    }
  }
}
node {
  name: "dnn/Cast_1"
  op: "Cast"
  input: "IteratorGetNext:1"
  attr {
    key: "DstT"
    value {
      type: DT_FLOAT
    }
  }
  attr {
    key: "SrcT"
    value {
      type: DT_DOUBLE
    }
  }
  attr {
    key: "Truncate"
    value {
      b: false
    }
  }
  attr {
    key: "_output_shapes"
    value {
      list {
        shape {
          dim {
            size: -1
          }
        }
      }
    }
  }
}
node {
  name: "dnn/Cast_2"
  op: "Cast"
  input: "IteratorGetNext:2"
  attr {
    key: "DstT"
    value {
      type: DT_FLOAT
    }
  }
  attr {
    key: "SrcT"
    value {
      type: DT_DOUBLE
    }
  }
  attr {
    key: "Truncate"
    value {
      b: false
    }
  }
  attr {
    key: "_output_shapes"
    value {
      list {
        shape {
          dim {
            size: -1
          }
        }
      }
    }
  }
}
node {
  name: "dnn/Cast_3"
  op: "Cast"
  input: "IteratorGetNext:3"
  attr {
    key: "DstT"
    value {
      type: DT_FLOAT
    }
  }
  attr {
    key: "SrcT"
    value {
      type: DT_DOUBLE
    }
  }
  attr {
    key: "Truncate"
    value {
      b: false
    }
  }
  attr {
    key: "_output_shapes"
    value {
      list {
        shape {
          dim {
            size: -1
          }
        }
      }
    }
  }
}
node {
  name: "dnn/Cast_4"
  op: "Cast"
  input: "IteratorGetNext:6"
  attr {
    key: "DstT"
    value {
      type: DT_FLOAT
    }
  }
  attr {
    key: "SrcT"
    value {
      type: DT_DOUBLE
    }
  }
  attr {
    key: "Truncate"
    value {
      b: false
    }
  }
  attr {
    key: "_output_shapes"
    value {
      list {
        shape {
          dim {
            size: -1
          }
        }
      }
    }
  }
}
node {
  name: "dnn/input_from_feature_columns/input_layer/Acceleration_1/ExpandDims/dim"
  op: "Const"
  attr {
    key: "_output_shapes"
    value {
      list {
        shape {
        }
      }
    }
  }
  attr {
    key: "dtype"
    value {
      type: DT_INT32
    }
  }
  attr {
    key: "value"
    value {
      tensor {
        dtype: DT_INT32
        tensor_shape {
        }
        int_val: -1
      }
    }
  }
}
node {
  name: "dnn/input_from_feature_columns/input_layer/Acceleration_1/ExpandDims"
  op: "ExpandDims"
  input: "dnn/Cast"
  input: "dnn/input_from_feature_columns/input_layer/Acceleration_1/ExpandDims/dim"
  attr {
    key: "T"
    value {
      type: DT_FLOAT
    }
  }
  attr {
    key: "Tdim"
    value {
      type: DT_INT32
    }
  }
  attr {
    key: "_output_shapes"
    value {
      list {
        shape {
          dim {
            size: -1
          }
          dim {
            size: 1
          }
        }
      }
    }
  }
}
node {
  name: "dnn/input_from_feature_columns/input_layer/Acceleration_1/Shape"
  op: "Shape"
  input: "dnn/input_from_feature_columns/input_layer/Acceleration_1/ExpandDims"
  attr {
    key: "T"
    value {
      type: DT_FLOAT
    }
  }
  attr {
    key: "_output_shapes"
    value {
      list {
        shape {
          dim {
            size: 2
          }
        }
      }
    }
  }
  attr {
    key: "out_type"
    value {
      type: DT_INT32
    }
  }
}
node {
  name: "dnn/input_from_feature_columns/input_layer/Acceleration_1/strided_slice/stack"
  op: "Const"
  attr {
    key: "_output_shapes"
    value {
      list {
        shape {
          dim {
            size: 1
          }
        }
      }
    }
  }
  attr {
    key: "dtype"
    value {
      type: DT_INT32
    }
  }
  attr {
    key: "value"
    value {
      tensor {
        dtype: DT_INT32
        tensor_shape {
          dim {
            size: 1
          }
        }
        int_val: 0
      }
    }
  }
}
node {
  name: "dnn/input_from_feature_columns/input_layer/Acceleration_1/strided_slice/stack_1"
  op: "Const"
  attr {
    key: "_output_shapes"
    value {
      list {
        shape {
          dim {
            size: 1
          }
        }
      }
    }
  }
  attr {
    key: "dtype"
    value {
      type: DT_INT32
    }
  }
  attr {
    key: "value"
    value {
      tensor {
        dtype: DT_INT32
        tensor_shape {
          dim {
            size: 1
          }
        }
        int_val: 1
      }
    }
  }
}
node {
  name: "dnn/input_from_feature_columns/input_layer/Acceleration_1/strided_slice/stack_2"
  op: "Const"
  attr {
    key: "_output_shapes"
    value {
      list {
        shape {
          dim {
            size: 1
          }
        }
      }
    }
  }
  attr {
    key: "dtype"
    value {
      type: DT_INT32
    }
  }
  attr {
    key: "value"
    value {
      tensor {
        dtype: DT_INT32
        tensor_shape {
          dim {
            size: 1
          }
        }
        int_val: 1
      }
    }
  }
}
node {
  name: "dnn/input_from_feature_columns/input_layer/Acceleration_1/strided_slice"
  op: "StridedSlice"
  input: "dnn/input_from_feature_columns/input_layer/Acceleration_1/Shape"
  input: "dnn/input_from_feature_columns/input_layer/Acceleration_1/strided_slice/stack"
  input: "dnn/input_from_feature_columns/input_layer/Acceleration_1/strided_slice/stack_1"
  input: "dnn/input_from_feature_columns/input_layer/Acceleration_1/strided_slice/stack_2"
  attr {
    key: "Index"
    value {
      type: DT_INT32
    }
  }
  attr {
    key: "T"
    value {
      type: DT_INT32
    }
  }
  attr {
    key: "_output_shapes"
    value {
      list {
        shape {
        }
      }
    }
  }
  attr {
    key: "begin_mask"
    value {
      i: 0
    }
  }
  attr {
    key: "ellipsis_mask"
    value {
      i: 0
    }
  }
  attr {
    key: "end_mask"
    value {
      i: 0
    }
  }
  attr {
    key: "new_axis_mask"
    value {
      i: 0
    }
  }
  attr {
    key: "shrink_axis_mask"
    value {
      i: 1
    }
  }
}
node {
  name: "dnn/input_from_feature_columns/input_layer/Acceleration_1/Reshape/shape/1"
  op: "Const"
  attr {
    key: "_output_shapes"
    value {
      list {
        shape {
        }
      }
    }
  }
  attr {
    key: "dtype"
    value {
      type: DT_INT32
    }
  }
  attr {
    key: "value"
    value {
      tensor {
        dtype: DT_INT32
        tensor_shape {
        }
        int_val: 1
      }
    }
  }
}
node {
  name: "dnn/input_from_feature_columns/input_layer/Acceleration_1/Reshape/shape"
  op: "Pack"
  input: "dnn/input_from_feature_columns/input_layer/Acceleration_1/strided_slice"
  input: "dnn/input_from_feature_columns/input_layer/Acceleration_1/Reshape/shape/1"
  attr {
    key: "N"
    value {
      i: 2
    }
  }
  attr {
    key: "T"
    value {
      type: DT_INT32
    }
  }
  attr {
    key: "_output_shapes"
    value {
      list {
        shape {
          dim {
            size: 2
          }
        }
      }
    }
  }
  attr {
    key: "axis"
    value {
      i: 0
    }
  }
}
node {
  name: "dnn/input_from_feature_columns/input_layer/Acceleration_1/Reshape"
  op: "Reshape"
  input: "dnn/input_from_feature_columns/input_layer/Acceleration_1/ExpandDims"
  input: "dnn/input_from_feature_columns/input_layer/Acceleration_1/Reshape/shape"
  attr {
    key: "T"
    value {
      type: DT_FLOAT
    }
  }
  attr {
    key: "Tshape"
    value {
      type: DT_INT32
    }
  }
  attr {
    key: "_output_shapes"
    value {
      list {
        shape {
          dim {
            size: -1
          }
          dim {
            size: 1
          }
        }
      }
    }
  }
}
node {
  name: "dnn/input_from_feature_columns/input_layer/Cylinders_1/ExpandDims/dim"
  op: "Const"
  attr {
    key: "_output_shapes"
    value {
      list {
        shape {
        }
      }
    }
  }
  attr {
    key: "dtype"
    value {
      type: DT_INT32
    }
  }
  attr {
    key: "value"
    value {
      tensor {
        dtype: DT_INT32
        tensor_shape {
        }
        int_val: -1
      }
    }
  }
}
node {
  name: "dnn/input_from_feature_columns/input_layer/Cylinders_1/ExpandDims"
  op: "ExpandDims"
  input: "dnn/Cast_1"
  input: "dnn/input_from_feature_columns/input_layer/Cylinders_1/ExpandDims/dim"
  attr {
    key: "T"
    value {
      type: DT_FLOAT
    }
  }
  attr {
    key: "Tdim"
    value {
      type: DT_INT32
    }
  }
  attr {
    key: "_output_shapes"
    value {
      list {
        shape {
          dim {
            size: -1
          }
          dim {
            size: 1
          }
        }
      }
    }
  }
}
node {
  name: "dnn/input_from_feature_columns/input_layer/Cylinders_1/Shape"
  op: "Shape"
  input: "dnn/input_from_feature_columns/input_layer/Cylinders_1/ExpandDims"
  attr {
    key: "T"
    value {
      type: DT_FLOAT
    }
  }
  attr {
    key: "_output_shapes"
    value {
      list {
        shape {
          dim {
            size: 2
          }
        }
      }
    }
  }
  attr {
    key: "out_type"
    value {
      type: DT_INT32
    }
  }
}
node {
  name: "dnn/input_from_feature_columns/input_layer/Cylinders_1/strided_slice/stack"
  op: "Const"
  attr {
    key: "_output_shapes"
    value {
      list {
        shape {
          dim {
            size: 1
          }
        }
      }
    }
  }
  attr {
    key: "dtype"
    value {
      type: DT_INT32
    }
  }
  attr {
    key: "value"
    value {
      tensor {
        dtype: DT_INT32
        tensor_shape {
          dim {
            size: 1
          }
        }
        int_val: 0
      }
    }
  }
}
node {
  name: "dnn/input_from_feature_columns/input_layer/Cylinders_1/strided_slice/stack_1"
  op: "Const"
  attr {
    key: "_output_shapes"
    value {
      list {
        shape {
          dim {
            size: 1
          }
        }
      }
    }
  }
  attr {
    key: "dtype"
    value {
      type: DT_INT32
    }
  }
  attr {
    key: "value"
    value {
      tensor {
        dtype: DT_INT32
        tensor_shape {
          dim {
            size: 1
          }
        }
        int_val: 1
      }
    }
  }
}
node {
  name: "dnn/input_from_feature_columns/input_layer/Cylinders_1/strided_slice/stack_2"
  op: "Const"
  attr {
    key: "_output_shapes"
    value {
      list {
        shape {
          dim {
            size: 1
          }
        }
      }
    }
  }
  attr {
    key: "dtype"
    value {
      type: DT_INT32
    }
  }
  attr {
    key: "value"
    value {
      tensor {
        dtype: DT_INT32
        tensor_shape {
          dim {
            size: 1
          }
        }
        int_val: 1
      }
    }
  }
}
node {
  name: "dnn/input_from_feature_columns/input_layer/Cylinders_1/strided_slice"
  op: "StridedSlice"
  input: "dnn/input_from_feature_columns/input_layer/Cylinders_1/Shape"
  input: "dnn/input_from_feature_columns/input_layer/Cylinders_1/strided_slice/stack"
  input: "dnn/input_from_feature_columns/input_layer/Cylinders_1/strided_slice/stack_1"
  input: "dnn/input_from_feature_columns/input_layer/Cylinders_1/strided_slice/stack_2"
  attr {
    key: "Index"
    value {
      type: DT_INT32
    }
  }
  attr {
    key: "T"
    value {
      type: DT_INT32
    }
  }
  attr {
    key: "_output_shapes"
    value {
      list {
        shape {
        }
      }
    }
  }
  attr {
    key: "begin_mask"
    value {
      i: 0
    }
  }
  attr {
    key: "ellipsis_mask"
    value {
      i: 0
    }
  }
  attr {
    key: "end_mask"
    value {
      i: 0
    }
  }
  attr {
    key: "new_axis_mask"
    value {
      i: 0
    }
  }
  attr {
    key: "shrink_axis_mask"
    value {
      i: 1
    }
  }
}
node {
  name: "dnn/input_from_feature_columns/input_layer/Cylinders_1/Reshape/shape/1"
  op: "Const"
  attr {
    key: "_output_shapes"
    value {
      list {
        shape {
        }
      }
    }
  }
  attr {
    key: "dtype"
    value {
      type: DT_INT32
    }
  }
  attr {
    key: "value"
    value {
      tensor {
        dtype: DT_INT32
        tensor_shape {
        }
        int_val: 1
      }
    }
  }
}
node {
  name: "dnn/input_from_feature_columns/input_layer/Cylinders_1/Reshape/shape"
  op: "Pack"
  input: "dnn/input_from_feature_columns/input_layer/Cylinders_1/strided_slice"
  input: "dnn/input_from_feature_columns/input_layer/Cylinders_1/Reshape/shape/1"
  attr {
    key: "N"
    value {
      i: 2
    }
  }
  attr {
    key: "T"
    value {
      type: DT_INT32
    }
  }
  attr {
    key: "_output_shapes"
    value {
      list {
        shape {
          dim {
            size: 2
          }
        }
      }
    }
  }
  attr {
    key: "axis"
    value {
      i: 0
    }
  }
}
node {
  name: "dnn/input_from_feature_columns/input_layer/Cylinders_1/Reshape"
  op: "Reshape"
  input: "dnn/input_from_feature_columns/input_layer/Cylinders_1/ExpandDims"
  input: "dnn/input_from_feature_columns/input_layer/Cylinders_1/Reshape/shape"
  attr {
    key: "T"
    value {
      type: DT_FLOAT
    }
  }
  attr {
    key: "Tshape"
    value {
      type: DT_INT32
    }
  }
  attr {
    key: "_output_shapes"
    value {
      list {
        shape {
          dim {
            size: -1
          }
          dim {
            size: 1
          }
        }
      }
    }
  }
}
node {
  name: "dnn/input_from_feature_columns/input_layer/Displacement_1/ExpandDims/dim"
  op: "Const"
  attr {
    key: "_output_shapes"
    value {
      list {
        shape {
        }
      }
    }
  }
  attr {
    key: "dtype"
    value {
      type: DT_INT32
    }
  }
  attr {
    key: "value"
    value {
      tensor {
        dtype: DT_INT32
        tensor_shape {
        }
        int_val: -1
      }
    }
  }
}
node {
